[PAD]	0
[BOS]	0
[EOS]	0
[UNK]	0
@-@	0
▁	-2.32509
▁the	-3.08047
s	-3.20161
,	-3.37725
▁.	-3.7238
ed	-3.7279
▁of	-3.9612
unk	-4.00501
▁<	-4.0075
>	-4.00756
▁and	-4.08036
▁in	-4.16034
▁a	-4.26431
▁to	-4.28325
y	-4.48522
ing	-4.49421
=	-4.62148
"	-4.66506
▁was	-4.95946
▁'	-5.09182
ly	-5.12583
▁on	-5.15459
▁be	-5.28346
▁with	-5.33758
▁that	-5.34277
e	-5.35167
▁for	-5.35172
d	-5.36788
▁as	-5.4076
▁by	-5.46482
)	-5.52303
(	-5.52403
▁is	-5.5459
n	-5.70126
▁it	-5.70387
▁at	-5.78478
▁from	-5.7855
▁he	-5.79363
▁his	-5.80458
.	-5.84885
t	-5.93542
▁an	-6.00508
▁were	-6.01484
@	-6.13175
▁had	-6.25834
▁which	-6.2947
en	-6.3176
▁@	-6.34913
al	-6.36803
th	-6.4287
▁not	-6.44035
▁are	-6.44708
er	-6.44952
▁this	-6.4904
es	-6.52498
▁but	-6.54875
▁their	-6.5519
▁first	-6.55888
;	-6.56756
▁200	-6.57691
▁her	-6.59906
ies	-6.59938
▁or	-6.61503
–	-6.6387
▁one	-6.65315
▁after	-6.65702
also	-6.66256
a	-6.66779
:	-6.67178
l	-6.70599
▁have	-6.73196
two	-6.73723
▁who	-6.74256
▁its	-6.76434
▁has	-6.79307
▁new	-6.82122
▁year	-6.86611
▁she	-6.87292
▁other	-6.87941
▁m	-6.95181
st	-6.952
ion	-6.95435
▁dur	-6.97235
▁time	-6.9886
▁when	-7.02234
▁all	-7.03064
r	-7.04232
▁over	-7.04372
on	-7.05756
▁i	-7.06576
▁f	-7.07321
5	-7.08229
2	-7.08316
▁us	-7.08556
1	-7.09799
▁song	-7.10445
▁into	-7.11515
3	-7.12259
▁more	-7.12414
6	-7.13549
▁man	-7.13755
o	-7.1427
▁would	-7.15275
▁some	-7.1609
▁game	-7.17262
4	-7.1835
▁him	-7.1887
▁1	-7.19411
▁201	-7.19464
8	-7.1958
9	-7.20953
mber	-7.2116
▁most	-7.21332
▁whil	-7.23412
▁play	-7.25097
▁part	-7.25458
▁2	-7.26754
7	-7.26968
▁no	-7.27298
▁w	-7.27722
▁up	-7.28181
▁there	-7.30366
▁three	-7.32389
in	-7.32584
▁includ	-7.34237
▁may	-7.34349
▁later	-7.34774
▁about	-7.35556
▁cit	-7.35879
▁through	-7.3754
▁film	-7.37677
▁again	-7.38416
twee	-7.38735
▁season	-7.39679
▁out	-7.40549
i	-7.4135
ish	-7.41619
se	-7.42395
ity	-7.4258
▁than	-7.42667
▁follow	-7.43167
ce	-7.43429
▁3	-7.43966
▁al	-7.4495
ic	-7.45717
▁unit	-7.45854
▁day	-7.46371
▁second	-7.47202
▁made	-7.48301
▁war	-7.5024
▁record	-7.50949
us	-7.51399
▁199	-7.53042
▁under	-7.54239
▁four	-7.54292
▁world	-7.54446
▁such	-7.54849
▁large	-7.55316
▁state	-7.55553
▁album	-7.56003
▁before	-7.56312
▁where	-7.56336
m	-7.56542
▁number	-7.56873
land	-7.58073
▁b	-7.59242
▁high	-7.59576
ive	-7.59735
able	-7.59906
▁call	-7.60368
▁them	-7.61318
▁can	-7.61568
▁19	-7.62116
▁work	-7.62682
▁000	-7.63412
▁both	-7.63577
▁end	-7.64623
▁like	-7.64894
▁area	-7.65124
le	-7.6693
▁south	-7.67524
out	-7.67686
came	-7.6769
▁north	-7.68034
ry	-7.6869
known	-7.70908
▁well	-7.71326
▁5	-7.71577
▁seri	-7.71967
▁earl	-7.7218
▁being	-7.72441
though	-7.72861
▁long	-7.72861
▁show	-7.73167
▁sever	-7.74112
▁final	-7.74279
▁form	-7.74825
▁c	-7.74825
▁4	-7.75667
▁centur	-7.76025
gan	-7.76685
an	-7.76862
/	-7.77672
▁episode	-7.77755
▁so	-7.78319
▁force	-7.78474
—	-7.79352
▁found	-7.82056
ary	-7.82526
▁team	-7.83082
cause	-7.83249
▁use	-7.83372
▁name	-7.84734
ment	-7.84922
son	-7.84928
▁un	-7.84978
ver	-7.85262
▁near	-7.87507
▁music	-7.87711
▁american	-7.88515
▁general	-7.88675
est	-7.88767
▁church	-7.89987
▁brit	-7.90475
ve	-7.90554
▁along	-7.91474
▁john	-7.91694
▁10	-7.92148
▁remain	-7.92711
▁could	-7.9318
▁great	-7.93181
▁original	-7.93541
round	-7.94021
▁back	-7.9443
▁people	-7.94666
▁did	-7.95261
▁unti	-7.96013
man	-7.96016
▁player	-7.96202
▁6	-7.96208
each	-7.96247
▁old	-7.96629
▁air	-7.96887
▁de	-7.96926
▁character	-7.97158
other	-7.98017
▁how	-7.98347
▁group	-7.99778
▁198	-8.00177
▁start	-8.00519
▁since	-8.00678
▁place	-8.00688
▁main	-8.01028
▁re	-8.01348
▁return	-8.01475
▁west	-8.02109
▁down	-8.02282
h	-8.02313
▁do	-8.02325
▁million	-8.02909
▁six	-8.03274
▁life	-8.03331
▁home	-8.04203
▁arm	-8.04227
▁major	-8.04853
▁national	-8.05113
▁states	-8.05321
▁km	-8.06048
ation	-8.06204
▁single	-8.06774
▁sai	-8.0687
ten	-8.06886
▁point	-8.07098
▁off	-8.07167
self	-8.07549
▁194	-8.07887
▁ship	-8.08005
▁0	-8.08502
▁go	-8.08844
▁you	-8.08856
▁support	-8.08918
▁river	-8.09172
▁small	-8.09221
company	-8.09324
▁count	-8.09774
▁u	-8.09778
▁august	-8.10264
▁lead	-8.1027
▁t	-8.10316
um	-8.10664
and	-8.10713
▁set	-8.10814
▁school	-8.11193
▁20	-8.11404
▁line	-8.11838
▁any	-8.12147
▁howe	-8.12235
▁award	-8.12867
▁what	-8.13257
▁release	-8.13435
▁order	-8.13485
%	-8.13549
▁best	-8.14361
ton	-8.14381
▁septe	-8.14587
▁if	-8.14704
▁week	-8.14743
▁see	-8.14961
▁art	-8.15057
▁jun	-8.15426
▁storm	-8.15518
▁german	-8.15967
▁196	-8.1621
▁attack	-8.1626
▁system	-8.16662
▁will	-8.16867
ok	-8.17025
▁result	-8.17605
▁12	-8.17624
▁famil	-8.1808
▁receiv	-8.18178
▁per	-8.18293
▁appear	-8.18417
▁child	-8.18896
▁government	-8.18919
▁open	-8.19388
▁due	-8.1942
▁late	-8.19633
▁own	-8.19787
▁197	-8.20481
▁consider	-8.2138
▁last	-8.21396
▁describ	-8.21609
▁short	-8.21866
ical	-8.22047
ever	-8.22106
▁just	-8.22193
▁j	-8.22831
▁video	-8.23074
▁histor	-8.23133
▁h	-8.23182
▁ii	-8.23193
▁g	-8.23357
▁title	-8.23722
▁18	-8.23907
te	-8.23982
▁now	-8.2419
▁black	-8.24584
▁island	-8.25617
▁league	-8.2599
▁road	-8.26039
▁division	-8.26636
▁oct	-8.26903
▁k	-8.27075
▁specie	-8.27399
ober	-8.27936
▁club	-8.27938
▁track	-8.28163
▁run	-8.28275
▁east	-8.28461
▁death	-8.28469
▁live	-8.28471
▁reach	-8.285
▁march	-8.28736
uch	-8.29042
▁book	-8.29143
$	-8.29258
▁common	-8.29335
▁mov	-8.29362
▁jan	-8.29396
▁releas	-8.29436
▁7	-8.29562
▁...	-8.29605
▁we	-8.29635
▁according	-8.29962
age	-8.30032
▁way	-8.30091
▁role	-8.30339
▁third	-8.30735
rote	-8.30806
▁15	-8.30986
[	-8.31271
]	-8.31271
▁york	-8.31544
▁water	-8.3156
▁games	-8.31671
▁8	-8.32114
▁house	-8.32208
▁direct	-8.3228
▁won	-8.32453
▁include	-8.3328
▁design	-8.33472
▁apri	-8.33751
▁men	-8.34107
▁power	-8.34717
▁white	-8.34875
▁allow	-8.35392
uar	-8.35577
▁even	-8.35912
▁9	-8.36099
is	-8.36147
▁engl	-8.37228
▁195	-8.37306
▁left	-8.37568
very	-8.37641
▁event	-8.38267
▁attempt	-8.38292
▁public	-8.38537
▁position	-8.39093
▁previous	-8.39315
▁dece	-8.39428
▁light	-8.39441
▁16	-8.39992
▁top	-8.40016
▁star	-8.40017
▁30	-8.40219
▁service	-8.40353
▁love	-8.40399
▁king	-8.40615
▁turn	-8.4097
▁l	-8.4121
▁make	-8.41287
▁tr	-8.4132
▁11	-8.41765
▁nove	-8.41844
▁become	-8.42066
▁13	-8.42284
▁month	-8.42626
ren	-8.42955
▁base	-8.43044
▁193	-8.43337
▁publish	-8.43448
▁local	-8.4399
▁buil	-8.44041
▁perform	-8.44764
▁develop	-8.45186
▁14	-8.45194
▁park	-8.45231
▁feature	-8.45252
▁among	-8.45374
▁route	-8.45428
▁period	-8.45599
▁hurricane	-8.46
▁further	-8.46473
▁universit	-8.46625
▁production	-8.46658
▁bas	-8.46913
▁25	-8.47179
▁version	-8.47293
▁head	-8.47756
▁di	-8.47794
▁review	-8.47889
▁tour	-8.48167
▁still	-8.48401
▁site	-8.48666
as	-8.48859
▁nex	-8.48884
▁p	-8.49528
▁2010	-8.49556
▁career	-8.49648
▁r	-8.49969
▁land	-8.49989
▁building	-8.50156
ous	-8.50163
▁times	-8.50226
▁close	-8.50371
▁list	-8.50379
▁field	-8.50476
ham	-8.50549
▁young	-8.50675
ance	-8.51335
▁mi	-8.51756
▁similar	-8.52017
▁operation	-8.52285
▁present	-8.52387
▁rock	-8.52618
▁performance	-8.5268
▁take	-8.52823
▁establish	-8.53128
▁o	-8.53183
▁continu	-8.53943
▁every	-8.54312
▁seven	-8.54523
▁international	-8.54865
x	-8.55021
ley	-8.55131
▁militar	-8.5514
▁yard	-8.55218
▁100	-8.55219
▁few	-8.55432
▁help	-8.55568
▁writ	-8.55852
▁fire	-8.55933
▁led	-8.56409
▁level	-8.56425
▁right	-8.56614
▁battalion	-8.56772
ame	-8.56806
▁chart	-8.56915
▁pass	-8.57286
▁band	-8.57423
ia	-8.57522
▁side	-8.57709
▁act	-8.57808
▁project	-8.57907
▁want	-8.58028
▁real	-8.58113
by	-8.58131
▁half	-8.58195
▁former	-8.58441
▁say	-8.58456
▁french	-8.58715
▁sam	-8.58862
▁miss	-8.59115
▁never	-8.59156
▁change	-8.59179
▁english	-8.59327
▁total	-8.59674
held	-8.59886
side	-8.60134
▁full	-8.60441
▁though	-8.60597
u	-8.60637
▁jul	-8.60668
▁cover	-8.608
▁hav	-8.61006
▁town	-8.6128
opical	-8.6138
▁story	-8.6141
▁claim	-8.61606
all	-8.61716
▁official	-8.62169
▁development	-8.6258
c	-8.62818
▁17	-8.63149
▁contain	-8.63313
▁complete	-8.63325
ar	-8.63682
▁writing	-8.63736
▁kill	-8.64234
stead	-8.64406
▁population	-8.64791
▁produc	-8.64822
▁human	-8.65005
f	-8.65134
▁co	-8.65244
▁different	-8.65293
▁suggest	-8.6564
▁port	-8.65881
▁strong	-8.65969
▁control	-8.66006
▁good	-8.66181
▁critic	-8.66283
ty	-8.66491
▁eight	-8.66521
▁battle	-8.67347
▁192	-8.68298
▁night	-8.68402
▁particular	-8.68649
ebru	-8.69238
&	-8.69241
▁increase	-8.6944
▁highway	-8.69682
▁brigade	-8.69707
▁damage	-8.69896
▁televis	-8.70047
lost	-8.70055
▁country	-8.70124
▁plan	-8.70411
▁despi	-8.70699
▁wal	-8.70888
▁red	-8.70969
▁body	-8.71342
▁match	-8.71538
▁southern	-8.71853
▁21	-8.72099
cross	-8.72481
▁defeat	-8.72669
▁little	-8.72669
▁region	-8.72711
▁issue	-8.72865
craft	-8.72915
thing	-8.72918
▁post	-8.73007
▁members	-8.73042
▁law	-8.73071
!	-8.7308
▁win	-8.73282
hose	-8.73441
▁fee	-8.73491
▁president	-8.73584
▁move	-8.73601
ylan	-8.73809
▁finish	-8.73838
▁nam	-8.73875
▁less	-8.73951
▁central	-8.74174
▁popular	-8.74252
▁reported	-8.74306
▁feder	-8.74313
▁age	-8.74773
▁initial	-8.74952
▁style	-8.75022
▁god	-8.75254
▁action	-8.75471
▁norther	-8.75622
▁coast	-8.75803
▁scor	-8.76074
▁wide	-8.76235
▁me	-8.76541
▁center	-8.76676
ian	-8.76692
▁26	-8.76752
▁low	-8.76785
▁fel	-8.76956
▁japan	-8.77072
line	-8.77112
▁gav	-8.77308
▁my	-8.77325
▁care	-8.7747
▁nav	-8.77581
given	-8.77806
▁range	-8.77812
day	-8.77817
▁22	-8.77913
▁toward	-8.78344
▁mak	-8.78498
▁novel	-8.78572
▁23	-8.78601
▁appearance	-8.78621
▁western	-8.78672
▁america	-8.78687
▁grand	-8.79032
▁thought	-8.79198
▁term	-8.79205
k	-8.79303
ness	-8.79379
▁eastern	-8.79486
most	-8.79579
▁train	-8.80057
▁modern	-8.80331
▁element	-8.80563
coming	-8.81257
▁writer	-8.81436
▁female	-8.81454
▁royal	-8.81832
▁hero	-8.81924
▁case	-8.8198
▁caus	-8.82058
▁24	-8.82292
▁scene	-8.82689
▁hour	-8.82838
▁street	-8.82895
▁court	-8.82944
▁sea	-8.83045
ese	-8.83203
▁car	-8.83485
▁australian	-8.83575
▁station	-8.83597
▁creat	-8.83606
▁construction	-8.83612
▁father	-8.83896
▁enter	-8.83967
▁command	-8.84088
▁get	-8.84398
▁look	-8.84608
▁championship	-8.84875
▁190	-8.84897
way	-8.84986
▁add	-8.85046
▁sign	-8.85355
▁join	-8.8536
▁ft	-8.85391
▁cross	-8.85493
re	-8.85673
▁guitar	-8.86029
▁eventual	-8.86038
▁28	-8.86114
▁various	-8.86746
▁ire	-8.86833
▁stage	-8.87094
▁free	-8.87101
▁came	-8.87124
b	-8.87204
▁view	-8.87346
▁victor	-8.87384
▁significant	-8.87436
ondon	-8.87841
away	-8.8799
▁important	-8.88062
ither	-8.88369
▁kingdom	-8.88416
▁class	-8.88418
▁possibl	-8.88891
▁ma	-8.88894
▁grow	-8.89654
▁australia	-8.89771
▁miles	-8.89846
▁50	-8.89876
▁political	-8.90165
▁bird	-8.90222
▁discover	-8.9035
▁mid	-8.90562
na	-8.90627
ford	-8.90733
▁minute	-8.9084
hind	-8.90854
▁director	-8.91012
▁interest	-8.91108
often	-8.9115
▁ten	-8.91163
▁earlie	-8.91299
ife	-8.91363
less	-8.91407
▁ever	-8.91516
▁serv	-8.91687
▁does	-8.91735
▁mean	-8.91759
▁exist	-8.91832
▁peak	-8.91851
▁poem	-8.92079
ether	-8.92152
▁success	-8.92251
▁went	-8.92343
▁mm	-8.9246
▁ground	-8.92471
▁football	-8.92568
▁brown	-8.92589
▁cup	-8.9259
▁influence	-8.9263
▁successful	-8.92836
▁stat	-8.92895
▁james	-8.929
▁mount	-8.93012
▁example	-8.93079
▁studio	-8.93079
▁date	-8.93364
▁put	-8.93568
ers	-8.93766
thus	-8.94087
▁campaign	-8.9409
▁mother	-8.94362
▁son	-8.94573
▁face	-8.94731
▁effect	-8.94806
▁should	-8.94864
▁structure	-8.95119
▁need	-8.9523
▁27	-8.95314
upon	-8.95475
▁wom	-8.95611
▁come	-8.96
▁sent	-8.9608
▁male	-8.96337
▁wall	-8.96771
▁village	-8.9694
▁person	-8.96954
▁report	-8.97519
▁locat	-8.97545
▁provide	-8.97768
z	-8.97937
▁race	-8.98009
cy	-8.98028
▁recording	-8.98086
▁fall	-8.98494
▁gold	-8.98618
▁continue	-8.9874
▁entire	-8.98957
ship	-8.99317
▁word	-8.9955
once	-8.99552
▁st	-8.99743
▁represent	-8.99885
▁arriv	-8.99916
▁featur	-9.00053
▁born	-9.00149
ne	-9.00232
▁give	-9.0029
▁magazine	-9.00383
▁tog	-9.00535
▁too	-9.00539
▁student	-9.00926
▁fight	-9.01053
▁officer	-9.01555
▁goal	-9.01649
▁heavy	-9.02021
▁announc	-9.02663
▁mix	-9.02898
▁front	-9.02955
▁far	-9.03719
▁ha	-9.0383
▁difficult	-9.03965
▁stone	-9.04019
▁nation	-9.04342
▁atlant	-9.04383
▁communit	-9.0443
▁addition	-9.04722
▁debut	-9.0481
▁blue	-9.05238
▁offer	-9.05314
▁cast	-9.05334
▁hit	-9.05358
or	-9.05703
▁wood	-9.05724
▁fleet	-9.05727
▁stars	-9.05732
▁gun	-9.05854
nd	-9.06
▁protein	-9.06234
▁figure	-9.06235
▁con	-9.06242
▁forest	-9.06244
▁robert	-9.06443
▁condom	-9.06525
▁study	-9.06854
▁office	-9.07027
▁program	-9.07102
▁france	-9.07212
▁visit	-9.07338
▁additional	-9.07479
▁image	-9.07789
▁guns	-9.07884
▁relationship	-9.08053
▁david	-9.08934
ism	-9.08949
▁artist	-9.09037
▁loss	-9.09168
▁decid	-9.09211
ie	-9.09339
▁comment	-9.09571
▁individual	-9.09738
▁ball	-9.09832
field	-9.09843
▁process	-9.09938
▁tree	-9.10116
▁test	-9.10159
▁pre	-9.10223
taken	-9.10282
▁v	-9.10703
▁infant	-9.10939
▁works	-9.10967
▁experience	-9.11006
▁member	-9.111
▁source	-9.11235
▁section	-9.11243
▁manager	-9.11297
▁regiment	-9.11539
▁break	-9.11646
▁z	-9.11661
▁40	-9.11673
▁roman	-9.11687
▁fort	-9.11696
▁provid	-9.11727
▁current	-9.1184
▁mark	-9.12067
▁transport	-9.12228
▁engineer	-9.12263
▁shot	-9.12264
▁subsequent	-9.12755
▁european	-9.128
▁europe	-9.12866
▁cell	-9.12949
▁lack	-9.13067
▁voice	-9.13271
▁dam	-9.133
▁29	-9.13347
▁problem	-9.13369
▁consist	-9.1338
▁regard	-9.13453
▁idea	-9.1398
rida	-9.13983
▁parliament	-9.13988
▁stor	-9.1413
▁language	-9.14301
▁association	-9.14658
▁rest	-9.14748
▁limit	-9.14749
▁los	-9.14849
▁protect	-9.14883
▁leas	-9.15015
▁mountain	-9.15397
one	-9.15483
▁ask	-9.15653
▁score	-9.15729
ought	-9.15862
▁bill	-9.1588
▁william	-9.1589
▁soon	-9.15937
▁sold	-9.16103
▁find	-9.16273
▁believ	-9.16333
▁super	-9.16404
▁special	-9.16778
▁council	-9.17129
▁accept	-9.17252
▁31	-9.17325
▁ju	-9.17359
▁business	-9.17458
▁commercial	-9.17459
ball	-9.17513
▁space	-9.17514
▁clear	-9.17552
▁regular	-9.17785
▁activit	-9.18102
▁mexic	-9.18103
▁flight	-9.18105
▁begin	-9.18186
▁horse	-9.18408
▁industr	-9.18417
▁outside	-9.1845
▁sun	-9.18629
▁non	-9.18781
g	-9.19006
▁commander	-9.19039
▁depression	-9.19084
▁george	-9.1911
el	-9.19127
tic	-9.19255
▁societ	-9.1945
▁theme	-9.19702
▁middle	-9.19736
ston	-9.19776
▁opening	-9.19828
▁brough	-9.19876
▁destroy	-9.20055
▁flo	-9.20072
▁machine	-9.20132
ington	-9.20178
▁ga	-9.2028
▁sound	-9.20281
▁draw	-9.20341
▁hall	-9.2037
▁size	-9.20553
▁summer	-9.20646
▁du	-9.20869
▁boy	-9.20971
▁ka	-9.21131
▁hand	-9.21263
▁safe	-9.21267
▁christian	-9.21307
▁lower	-9.21324
▁type	-9.21443
ny	-9.21498
▁evidence	-9.21721
▁critical	-9.21879
▁network	-9.22057
▁camp	-9.22063
ally	-9.22183
▁manage	-9.22191
▁flood	-9.22399
▁rath	-9.22531
ch	-9.22583
ma	-9.22677
▁radio	-9.2275
▁crew	-9.22764
▁beyon	-9.22783
▁hill	-9.22843
▁189	-9.22925
▁research	-9.22969
▁territor	-9.23116
▁met	-9.23124
▁bay	-9.23158
00	-9.23316
▁rank	-9.23396
▁saw	-9.23721
▁social	-9.23762
▁stay	-9.23832
▁location	-9.23862
▁authorit	-9.23907
▁troops	-9.23929
▁jo	-9.24095
▁michael	-9.24188
▁tech	-9.24232
▁rule	-9.24322
▁police	-9.24353
▁competition	-9.24438
▁launch	-9.24584
▁fan	-9.24605
ordan	-9.24717
▁union	-9.24731
ago	-9.24845
ium	-9.24873
ial	-9.24891
▁fail	-9.25035
▁media	-9.25058
▁pop	-9.25243
▁plann	-9.2539
▁mass	-9.25414
▁contract	-9.25447
▁museum	-9.25476
▁reveal	-9.25476
▁average	-9.25562
▁actor	-9.25674
▁producer	-9.25698
▁creek	-9.25825
▁tower	-9.25855
▁involv	-9.25929
▁era	-9.25951
▁abo	-9.26037
▁quarter	-9.26179
more	-9.26262
▁vocal	-9.26264
▁working	-9.2633
▁conduct	-9.26535
▁prais	-9.26576
▁don	-9.2662
▁ca	-9.26685
▁gain	-9.26686
▁reception	-9.26882
▁winds	-9.26919
▁length	-9.27011
▁learn	-9.27246
ouri	-9.2729
▁effort	-9.27585
▁studie	-9.27712
ter	-9.27723
▁reason	-9.2782
▁nine	-9.27825
▁account	-9.27941
▁temple	-9.27941
bc	-9.27969
▁room	-9.2806
▁deal	-9.28185
▁complet	-9.28219
▁mary	-9.28329
▁fif	-9.28407
▁la	-9.28574
wood	-9.28606
▁appoint	-9.28617
▁suffer	-9.28656
▁richard	-9.28659
▁sometime	-9.28698
▁college	-9.28702
▁concert	-9.29196
▁captain	-9.29377
▁500	-9.29687
▁brother	-9.29747
▁extend	-9.29859
▁construct	-9.30009
▁poor	-9.30015
▁185	-9.30091
▁introduc	-9.30284
▁hard	-9.30358
▁food	-9.30483
▁agree	-9.30642
▁material	-9.30829
▁girl	-9.30833
▁travel	-9.30912
▁colon	-9.31112
▁seem	-9.31165
▁capital	-9.31206
▁past	-9.3127
▁replac	-9.31299
▁condition	-9.31574
▁letter	-9.31614
▁earth	-9.31863
▁decision	-9.31941
▁quick	-9.31941
▁recent	-9.31953
▁leave	-9.32037
▁express	-9.32056
read	-9.32128
▁anti	-9.32225
▁paul	-9.32442
▁indian	-9.32657
▁commission	-9.32686
mph	-9.3292
▁availab	-9.32991
▁1970	-9.33103
▁taking	-9.33154
▁approach	-9.33202
▁fly	-9.33374
▁beginning	-9.33441
▁usual	-9.33447
▁background	-9.33459
▁san	-9.3373
ries	-9.33902
▁education	-9.33926
▁color	-9.33963
▁believe	-9.34176
▁link	-9.34197
▁standard	-9.34434
▁create	-9.34581
▁beat	-9.34737
▁treat	-9.34793
ful	-9.3487
▁interview	-9.34955
▁positive	-9.34956
▁referr	-9.3502
▁know	-9.3509
▁describe	-9.35179
low	-9.3524
▁master	-9.35249
▁broke	-9.35264
▁africa	-9.35337
▁maintain	-9.35338
▁centre	-9.3534
lly	-9.35533
▁religious	-9.35722
▁science	-9.35722
▁canada	-9.35733
▁poet	-9.35748
▁metre	-9.35902
ld	-9.3597
▁burn	-9.3599
▁note	-9.36095
▁response	-9.36108
▁native	-9.36112
▁prior	-9.36241
▁henry	-9.36502
▁2000	-9.36681
tion	-9.36856
▁certain	-9.36885
▁squadron	-9.36886
▁press	-9.37222
▁think	-9.37256
▁1990	-9.37348
▁focus	-9.37471
▁peter	-9.37589
▁approximate	-9.37668
▁saint	-9.37682
▁thing	-9.37889
▁olivier	-9.38077
▁mention	-9.38131
▁increasing	-9.38457
▁professional	-9.38473
▁election	-9.38519
▁movement	-9.38537
▁friend	-9.38542
▁fund	-9.38652
▁po	-9.38672
▁india	-9.38692
▁boat	-9.38719
▁typical	-9.39011
▁attend	-9.3906
▁deep	-9.39068
▁personal	-9.39391
▁charge	-9.39593
▁vietnam	-9.39652
▁plot	-9.39658
ifa	-9.39732
▁surface	-9.39849
▁foot	-9.39903
▁advance	-9.40009
▁immediate	-9.40054
▁organization	-9.4007
▁explain	-9.40164
▁tri	-9.40195
▁tho	-9.40416
lor	-9.40424
▁pitch	-9.40438
▁our	-9.40481
▁relat	-9.40514
▁specific	-9.40543
▁collection	-9.40674
▁ne	-9.40717
▁35	-9.40722
ra	-9.40834
▁prevent	-9.40862
▁airport	-9.40877
▁slow	-9.40878
0	-9.40889
▁grant	-9.40905
▁write	-9.40948
▁green	-9.41028
▁secur	-9.41054
▁tell	-9.41115
▁cost	-9.41118
▁canadian	-9.41269
▁forward	-9.41279
▁annual	-9.41287
▁culture	-9.41425
▁winn	-9.41695
▁trade	-9.41729
▁towns	-9.41921
fall	-9.41954
▁must	-9.41972
▁coach	-9.42047
▁animal	-9.42087
▁musical	-9.42145
town	-9.42172
▁futur	-9.42222
▁compar	-9.424
▁save	-9.42466
▁pressure	-9.42503
▁detail	-9.42503
▁rain	-9.42551
▁resident	-9.42601
▁minor	-9.42667
▁rate	-9.4273
▁188	-9.42738
▁serve	-9.42879
▁1960	-9.42966
▁staff	-9.4298
▁relative	-9.43006
▁60	-9.43087
▁goals	-9.43298
▁intend	-9.43423
▁bowl	-9.43471
▁piece	-9.43525
▁probabl	-9.43602
▁subject	-9.43743
▁span	-9.43925
▁key	-9.43986
▁civil	-9.44153
▁especia	-9.44161
▁cathedral	-9.44161
▁private	-9.44163
ro	-9.44174
ist	-9.44216
▁woman	-9.44428
▁estimat	-9.44456
▁board	-9.4447
▁might	-9.44607
▁leg	-9.44629
▁heart	-9.44653
▁assembl	-9.44664
formation	-9.44677
▁natural	-9.44971
▁pacific	-9.45011
▁department	-9.45012
▁soldier	-9.45023
▁dark	-9.4503
▁better	-9.45054
▁fact	-9.45213
▁lake	-9.4555
▁el	-9.45696
▁spen	-9.45827
▁historical	-9.45873
▁bridge	-9.45976
ves	-9.46016
▁186	-9.46119
▁display	-9.46285
▁edge	-9.4651
▁separate	-9.46517
▁watch	-9.46525
rd	-9.46565
▁concern	-9.46709
▁wheeler	-9.4674
▁occurr	-9.46822
▁friends	-9.46888
la	-9.46938
▁runn	-9.47108
▁market	-9.47248
▁inter	-9.47453
▁daughter	-9.47579
▁injur	-9.4759
▁villa	-9.4792
▁connect	-9.47932
▁dan	-9.48297
▁nature	-9.48447
latter	-9.48508
ami	-9.48585
w	-9.48613
▁litera	-9.48629
▁chose	-9.48705
▁produce	-9.48797
▁catholic	-9.48883
▁host	-9.48997
▁broadcast	-9.49006
achel	-9.49103
▁batter	-9.4936
▁jin	-9.49597
▁cut	-9.49784
▁meeting	-9.49921
▁uk	-9.5002
▁assist	-9.50237
▁remov	-9.50253
▁cause	-9.50394
▁virgin	-9.50551
▁earn	-9.50594
▁district	-9.50657
▁practice	-9.50663
▁sister	-9.50681
▁wi	-9.50766
▁concept	-9.50828
nough	-9.50853
ota	-9.5089
▁billboard	-9.51109
▁mission	-9.51305
▁lyric	-9.51308
▁dead	-9.51377
▁select	-9.5141
▁big	-9.51425
▁reference	-9.51559
▁money	-9.51589
▁charles	-9.51596
▁affect	-9.51669
▁upper	-9.51715
▁dis	-9.51823
▁45	-9.52044
▁bring	-9.52168
▁model	-9.5222
alway	-9.52276
▁am	-9.52304
▁birth	-9.52345
▁jack	-9.52419
▁requir	-9.52615
▁cyclone	-9.52618
▁defence	-9.5292
ory	-9.52948
▁health	-9.53104
iller	-9.53118
▁traditional	-9.53275
▁living	-9.53378
▁heavi	-9.53383
▁sub	-9.53493
▁mos	-9.53629
▁double	-9.53725
▁arab	-9.53769
▁rapid	-9.5384
▁credit	-9.53851
it	-9.53909
▁minister	-9.53911
▁le	-9.53919
▁var	-9.5399
▁lines	-9.54038
▁traff	-9.5405
▁187	-9.54091
ney	-9.54129
▁amount	-9.54276
▁headquarter	-9.54302
▁got	-9.54315
▁sa	-9.54381
▁hospital	-9.55106
▁ocean	-9.55234
pool	-9.55236
▁1980	-9.55288
▁angel	-9.55324
▁author	-9.5539
da	-9.55476
▁primar	-9.55597
▁square	-9.55705
▁zealand	-9.55727
▁via	-9.55732
▁se	-9.55767
▁archaeolog	-9.55828
▁contemporar	-9.5585
▁independent	-9.55887
mont	-9.55912
▁rare	-9.56104
▁cm	-9.56374
▁scott	-9.5657
chines	-9.56798
▁meet	-9.56976
▁80	-9.57095
▁blood	-9.57126
▁olympic	-9.57128
▁fox	-9.57128
▁read	-9.57194
▁depict	-9.57509
stein	-9.57584
▁audience	-9.57604
▁border	-9.57606
▁pro	-9.57652
▁plant	-9.57768
▁box	-9.57874
ward	-9.57963
▁comed	-9.58005
▁pay	-9.58022
▁scientology	-9.58085
▁leav	-9.58089
▁respective	-9.58301
▁chang	-9.58303
▁trop	-9.58478
▁captur	-9.58552
▁00	-9.58556
msel	-9.58561
▁deliver	-9.5857
▁38	-9.58675
▁hot	-9.58743
▁assign	-9.58827
▁adult	-9.59053
▁valley	-9.59065
▁pair	-9.59116
▁whole	-9.59396
▁rich	-9.59517
▁morning	-9.59542
▁actual	-9.59544
hou	-9.59871
▁breed	-9.59961
▁historian	-9.60093
▁fish	-9.6024
▁ran	-9.60256
▁parent	-9.60284
▁throw	-9.60332
▁your	-9.60448
▁distance	-9.60526
▁question	-9.60539
▁moment	-9.60543
yet	-9.60615
▁wave	-9.60631
▁sequence	-9.60664
▁singer	-9.60865
▁marriage	-9.61043
▁employ	-9.61235
▁183	-9.6139
▁ancient	-9.61516
▁fruit	-9.61517
▁california	-9.61527
▁galve	-9.61551
▁round	-9.61698
que	-9.6186
▁queen	-9.61968
▁cricket	-9.62016
▁decade	-9.6202
▁equip	-9.62025
▁honor	-9.62025
▁jane	-9.62177
▁variet	-9.62371
▁ny	-9.62391
▁compani	-9.62432
▁castle	-9.62488
▁course	-9.625
▁jewish	-9.62538
▁metal	-9.62554
sh	-9.62582
▁1950	-9.62588
head	-9.62663
▁croatia	-9.62686
▁meaning	-9.62778
▁movie	-9.6283
▁36	-9.63005
▁defense	-9.63024
▁adopt	-9.63031
▁job	-9.63044
▁statu	-9.63083
▁tv	-9.63143
▁flow	-9.63199
▁share	-9.63349
▁dai	-9.63382
▁tournament	-9.63532
▁tradition	-9.63646
aid	-9.63683
▁gul	-9.63702
▁chief	-9.63737
▁portug	-9.63977
▁empire	-9.64044
▁propos	-9.64105
ain	-9.64122
▁rais	-9.64126
▁newspaper	-9.64555
▁polish	-9.64556
▁committee	-9.64556
▁situation	-9.64585
▁african	-9.64684
▁brad	-9.6469
▁occur	-9.64927
▁brief	-9.65073
▁method	-9.65142
ence	-9.65169
v	-9.65207
▁try	-9.65326
▁true	-9.65417
▁keep	-9.65438
ture	-9.65498
▁drive	-9.65527
▁rating	-9.65567
▁marri	-9.65879
aught	-9.65949
▁beach	-9.65987
▁fac	-9.66019
▁liver	-9.66204
chester	-9.66296
▁gods	-9.66386
▁effective	-9.66397
▁shell	-9.66697
▁184	-9.66828
▁stop	-9.66914
▁ultimate	-9.66944
▁talk	-9.67161
▁frank	-9.67177
▁paper	-9.67187
▁prince	-9.67292
ng	-9.67448
rish	-9.67539
lice	-9.676
▁conflict	-9.67688
▁request	-9.67688
▁festival	-9.67693
▁chic	-9.67694
▁nix	-9.67706
▁edition	-9.6775
lady	-9.67784
▁serious	-9.67836
ville	-9.67891
▁names	-9.67931
▁bad	-9.6803
▁sexual	-9.68122
▁ross	-9.68158
▁sell	-9.68183
▁conference	-9.68221
▁1940	-9.68281
▁painting	-9.68309
▁reduc	-9.68348
ated	-9.68393
▁screen	-9.68398
▁trip	-9.68419
▁republic	-9.68711
▁latin	-9.68783
▁turk	-9.6882
▁scot	-9.6887
▁aid	-9.69013
▁roll	-9.69065
▁books	-9.69185
▁speak	-9.69224
▁hundred	-9.69292
▁capture	-9.69315
house	-9.69586
▁numer	-9.69806
▁twenty	-9.69833
▁complex	-9.69833
▁opera	-9.69954
▁hair	-9.70029
▁distribut	-9.70234
▁inspir	-9.70329
▁piano	-9.70376
▁wing	-9.7041
▁1930	-9.70435
▁simon	-9.70536
▁meyer	-9.7059
▁70	-9.70686
▁giv	-9.70808
▁400	-9.70854
hu	-9.70865
▁potential	-9.70923
alkan	-9.70926
▁hop	-9.70947
▁observ	-9.70988
▁secret	-9.71118
▁corps	-9.71153
pole	-9.71175
▁trial	-9.71192
▁nor	-9.71204
xen	-9.71205
▁compos	-9.71377
▁husband	-9.71472
▁search	-9.71475
▁refus	-9.715
▁ra	-9.71528
rew	-9.71533
▁scale	-9.71647
▁eye	-9.71725
▁kind	-9.71875
▁fowle	-9.72026
▁propert	-9.72052
▁protest	-9.72123
▁active	-9.72149
back	-9.722
▁medi	-9.72225
▁operat	-9.72227
▁tay	-9.72434
▁christmas	-9.72581
▁description	-9.72585
▁theatre	-9.72733
▁defend	-9.72787
onto	-9.72926
▁iron	-9.7311
▁cultural	-9.73141
▁speed	-9.73141
▁dollar	-9.73146
▁reject	-9.73184
▁publication	-9.7326
▁done	-9.73398
▁entertain	-9.73399
▁hold	-9.73514
▁fast	-9.73595
▁declar	-9.7369
▁impact	-9.73712
▁crown	-9.73761
▁marine	-9.73764
▁yu	-9.73785
▁couple	-9.73815
▁composition	-9.73861
nh	-9.73864
▁x	-9.74046
▁involve	-9.74096
▁75	-9.74145
▁spring	-9.74197
▁channel	-9.74267
▁recover	-9.74269
▁italian	-9.74277
▁tail	-9.74481
▁script	-9.7483
▁shape	-9.74832
▁bishop	-9.74834
▁dedicat	-9.74835
▁thick	-9.74884
▁avoid	-9.74966
▁receive	-9.75064
▁dr	-9.7512
▁associat	-9.75155
▁burns	-9.75315
▁tex	-9.75335
▁makes	-9.75371
▁abandon	-9.75405
▁yellow	-9.75405
▁energ	-9.75406
▁unlike	-9.75412
▁carolina	-9.75416
▁hotel	-9.75419
et	-9.75425
▁sir	-9.75436
▁ending	-9.75594
▁300	-9.75622
▁frequent	-9.75749
▁academ	-9.75923
▁hear	-9.75949
▁here	-9.75977
▁monument	-9.7598
▁withdraw	-9.75988
cé	-9.75994
▁abilit	-9.76041
▁fir	-9.76059
▁premier	-9.76112
▁slight	-9.76118
▁fear	-9.76155
▁sport	-9.76182
▁van	-9.7625
ta	-9.76319
end	-9.76321
▁horn	-9.76347
▁jam	-9.76608
▁ray	-9.76652
▁wind	-9.76818
▁demand	-9.77141
▁qualit	-9.77141
▁reviewer	-9.77196
▁promotion	-9.77203
▁computer	-9.77319
▁baby	-9.77331
▁90	-9.77444
▁access	-9.77566
▁planet	-9.77576
▁soviet	-9.77724
▁draft	-9.77732
▁governor	-9.77733
▁settlement	-9.77734
▁meant	-9.77745
▁bodie	-9.77856
▁escape	-9.78084
ler	-9.7809
▁takes	-9.78122
▁perfect	-9.78297
▁expand	-9.78313
▁target	-9.78313
▁weapon	-9.78313
▁volume	-9.78313
▁reaction	-9.78338
ant	-9.78534
▁sky	-9.78718
▁feel	-9.78723
▁seat	-9.78814
▁offensive	-9.78859
▁paris	-9.78876
▁sing	-9.78885
▁rosebery	-9.78904
▁mile	-9.78922
▁presen	-9.79004
▁anderson	-9.79018
▁factor	-9.79034
▁wound	-9.7907
hether	-9.79117
19	-9.79123
ang	-9.7917
ground	-9.79259
▁del	-9.79271
▁direction	-9.79316
▁wild	-9.79498
▁pennsylvania	-9.795
▁jump	-9.79507
▁progress	-9.79509
▁wel	-9.79602
▁data	-9.79629
p	-9.79652
▁landing	-9.79795
▁marked	-9.79803
ez	-9.79885
▁fiction	-9.7993
china	-9.79986
▁transit	-9.80075
▁relief	-9.80099
▁rear	-9.80209
▁pick	-9.80223
▁winter	-9.80292
▁normal	-9.80442
▁nin	-9.8048
fore	-9.80511
hanna	-9.80561
stone	-9.8069
▁aspect	-9.80701
▁disease	-9.80701
▁ottoman	-9.80704
▁appeal	-9.80706
▁sentence	-9.80728
▁comic	-9.80937
▁carri	-9.80962
▁elect	-9.80966
▁measure	-9.81163
▁discuss	-9.81287
▁enjoy	-9.81307
▁task	-9.81307
▁enem	-9.81312
▁wor	-9.81325
▁branch	-9.81576
▁collect	-9.81739
beer	-9.81782
▁memor	-9.81875
▁powerful	-9.81955
▁jackson	-9.81973
▁classic	-9.82014
tention	-9.82017
▁33	-9.82062
▁ex	-9.82071
▁argu	-9.82079
ur	-9.8224
▁bond	-9.82256
▁strength	-9.82345
▁feeling	-9.82473
▁purpose	-9.82483
▁cougar	-9.8253
▁emperor	-9.8253
▁chain	-9.82601
▁wh	-9.82751
▁conclud	-9.82767
▁fill	-9.82952
rse	-9.82967
▁rose	-9.83001
▁lot	-9.83076
pain	-9.83099
▁temperature	-9.83148
▁combat	-9.83162
ll	-9.83168
▁lock	-9.83189
▁cap	-9.8331
admi	-9.83433
▁worker	-9.83439
▁confirm	-9.83451
▁portion	-9.83462
▁physical	-9.83475
▁broad	-9.83492
▁chris	-9.83582
▁northwest	-9.8361
▁fell	-9.83641
▁combin	-9.83701
▁casualt	-9.83789
▁copie	-9.8385
▁lord	-9.83919
no	-9.8403
▁walk	-9.84073
▁rise	-9.84083
▁bar	-9.84084
▁legal	-9.84226
▁ri	-9.84361
▁assault	-9.84395
▁content	-9.84425
▁pit	-9.84516
ung	-9.84591
▁text	-9.84678
truck	-9.84751
▁engine	-9.84778
▁32	-9.84814
▁phil	-9.84861
usch	-9.84887
▁percent	-9.85013
▁financial	-9.85032
▁rifle	-9.85035
▁somali	-9.85035
▁silver	-9.85071
▁leader	-9.85077
kapo	-9.85245
▁foundation	-9.85262
▁georgia	-9.85318
▁raid	-9.85424
▁guide	-9.85449
▁severe	-9.85612
▁deit	-9.85639
▁extreme	-9.85655
▁soundtrack	-9.85656
▁degree	-9.85656
▁window	-9.85656
▁stadium	-9.85658
od	-9.85682
▁39	-9.85802
▁polic	-9.85842
drew	-9.86017
▁responsib	-9.86124
▁value	-9.86231
▁formation	-9.86237
▁advantage	-9.86292
▁thousand	-9.86292
▁touchdown	-9.86294
▁chapter	-9.86295
maha	-9.8639
▁ridge	-9.86508
▁genu	-9.86662
▁determin	-9.8672
▁braathen	-9.86933
▁basi	-9.87
▁surviv	-9.87478
▁reflect	-9.87483
▁technolog	-9.87551
▁louis	-9.8758
▁fantas	-9.87583
▁rough	-9.8759
▁attract	-9.87678
▁build	-9.87729
tv	-9.8774
▁minne	-9.87812
▁facilit	-9.87973
▁northeast	-9.88085
▁document	-9.88207
▁reign	-9.88228
▁egyptian	-9.88237
where	-9.8824
▁bank	-9.88335
ice	-9.88422
play	-9.88639
▁murder	-9.88644
ine	-9.88706
▁object	-9.88779
inkel	-9.88885
▁standing	-9.8896
▁oppos	-9.88976
▁wash	-9.89262
▁economic	-9.89468
▁vehicle	-9.89539
▁pilot	-9.89539
▁opportunit	-9.89559
▁tom	-9.89644
▁sense	-9.89944
▁sales	-9.89982
▁specimen	-9.90202
▁domestic	-9.90202
▁session	-9.90203
▁bob	-9.9022
▁carry	-9.90243
▁brita	-9.90292
▁weaken	-9.90324
▁matter	-9.90344
▁hope	-9.9038
▁coin	-9.90443
▁core	-9.90533
▁habitat	-9.90564
▁independen	-9.90608
▁wear	-9.90642
▁nicol	-9.90642
anasi	-9.90869
▁executive	-9.90888
▁kick	-9.90888
▁digital	-9.90896
▁eat	-9.90916
▁nest	-9.91204
bury	-9.91281
time	-9.91306
▁primari	-9.9134
▁eva	-9.91446
▁extensive	-9.9154
▁smith	-9.91638
▁simpl	-9.91677
▁foreign	-9.9179
▁origin	-9.91839
hiva	-9.91852
▁bell	-9.91888
whil	-9.91905
▁reserve	-9.91978
nel	-9.9212
▁hands	-9.92122
▁nuclea	-9.92141
▁technique	-9.92215
▁surrounding	-9.92233
▁adam	-9.92319
▁dat	-9.92352
▁colour	-9.92406
▁damag	-9.92532
▁gate	-9.92892
▁respond	-9.92895
▁chapel	-9.92899
▁hamel	-9.92911
▁dj	-9.93101
▁row	-9.93129
lone	-9.93292
▁require	-9.93309
▁violen	-9.93351
▁achiev	-9.93405
▁mill	-9.93496
▁website	-9.9358
▁weather	-9.93591
ular	-9.93597
▁analys	-9.93708
▁ser	-9.9373
ster	-9.93871
well	-9.93924
▁ram	-9.94067
▁fit	-9.94082
▁mcc	-9.94109
▁jon	-9.94217
▁antimon	-9.9427
▁torre	-9.94352
ena	-9.94525
▁agent	-9.94545
orough	-9.94645
▁store	-9.94652
▁para	-9.94653
▁canno	-9.94708
▁bo	-9.94726
▁mr	-9.94824
▁sex	-9.94893
▁mar	-9.94924
▁athletic	-9.94964
▁illinois	-9.94965
▁actress	-9.94965
▁defensi	-9.94967
▁forc	-9.95056
18	-9.95062
▁transferr	-9.95077
▁survey	-9.95103
▁tenn	-9.95216
▁acre	-9.9523
▁participat	-9.95257
▁twic	-9.95308
▁mac	-9.95422
ting	-9.95425
ped	-9.95615
▁institution	-9.95664
▁destroyer	-9.95673
▁47	-9.95681
▁path	-9.95712
station	-9.95749
▁clos	-9.95766
▁prime	-9.95794
gen	-9.95851
▁priest	-9.95871
▁150	-9.96076
▁44	-9.96135
▁except	-9.96273
▁prominent	-9.96407
▁identifi	-9.96452
men	-9.96468
▁crowd	-9.96487
▁nucle	-9.96587
▁contrast	-9.96635
▁edward	-9.96709
▁indicate	-9.96727
▁fey	-9.96731
ent	-9.96827
at	-9.97079
▁push	-9.9708
▁risk	-9.97082
▁dance	-9.97083
▁print	-9.97172
▁apple	-9.97209
▁cal	-9.97243
▁semi	-9.97348
▁editor	-9.97536
ado	-9.9756
▁sports	-9.97607
▁thom	-9.97631
rnia	-9.97771
▁sustain	-9.97792
▁clark	-9.97796
▁42	-9.97811
▁institute	-9.9782
kovic	-9.97825
▁gar	-9.97907
▁tru	-9.98084
▁phase	-9.98145
▁bri	-9.98335
▁function	-9.98338
▁portray	-9.98345
▁creation	-9.98369
▁adventure	-9.98455
▁journey	-9.98511
▁retain	-9.98511
▁guest	-9.98539
▁stan	-9.98619
▁campus	-9.98631
oda	-9.98885
16	-9.9889
▁historic	-9.98976
bitt	-9.98987
▁intens	-9.98995
▁bass	-9.99008
▁threat	-9.99051
▁180	-9.99231
▁athlete	-9.99235
▁succeed	-9.99236
▁contact	-9.99238
▁barrow	-9.99247
▁oil	-9.99267
inches	-9.9928
▁dress	-9.99347
intin	-9.9936
▁visual	-9.99425
▁criticiz	-9.99534
▁product	-9.99565
▁trail	-9.99774
▁frame	-9.99829
▁designat	-9.99872
▁religion	-9.99965
▁apparent	-9.99966
▁railway	-9.99977
▁entrance	-9.99982
▁height	-10.001
▁rush	-10.0017
▁balti	-10.0017
▁israel	-10.0034
▁province	-10.0035
wise	-10.0036
▁182	-10.0046
50	-10.0051
▁acid	-10.007
▁characteristic	-10.0072
▁item	-10.0072
▁freeway	-10.0075
▁armor	-10.0095
▁maximu	-10.01
▁ceres	-10.0104
▁tale	-10.0112
▁nes	-10.0113
im	-10.0136
▁char	-10.0137
▁peace	-10.0137
▁opponent	-10.0144
▁alaba	-10.0145
▁1920	-10.0151
▁matche	-10.0156
▁controll	-10.0162
▁fi	-10.0174
shire	-10.018
▁decline	-10.0182
▁canal	-10.0184
▁distinct	-10.0194
▁sand	-10.0203
wide	-10.0215
▁stand	-10.0215
▁chair	-10.0218
▁simpson	-10.0219
▁musician	-10.0232
▁else	-10.0234
▁partial	-10.0235
▁kan	-10.024
▁viewers	-10.025
▁andrew	-10.0251
▁occasional	-10.0259
▁lane	-10.0262
kare	-10.0268
expected	-10.0272
my	-10.0279
▁mogadis	-10.0294
▁thunderbird	-10.0294
▁wilhelm	-10.0294
▁agreement	-10.0302
▁quit	-10.0308
▁multi	-10.0314
▁52	-10.0332
mond	-10.034
ean	-10.0354
▁34	-10.0361
▁mind	-10.0368
▁vessel	-10.037
▁permanent	-10.0371
▁advanc	-10.0378
white	-10.0381
▁delay	-10.0383
▁happen	-10.0385
▁fur	-10.0385
▁cold	-10.0392
15	-10.0413
▁fair	-10.0424
▁spot	-10.0429
▁fame	-10.0434
▁remix	-10.0436
▁reform	-10.0438
▁block	-10.0446
▁narrow	-10.0447
▁convert	-10.0447
▁spread	-10.0451
▁pattern	-10.0452
▁bull	-10.0458
▁plate	-10.0462
14	-10.0488
▁desire	-10.0494
▁golden	-10.0499
▁inning	-10.0504
▁hous	-10.0516
▁orbit	-10.0523
▁expedition	-10.0524
▁tank	-10.0524
▁failure	-10.0524
co	-10.054
▁farm	-10.0566
17	-10.057
▁categor	-10.0571
seph	-10.0578
▁fine	-10.0581
be	-10.059
▁agricultur	-10.06
▁compound	-10.06
▁choice	-10.0601
▁giant	-10.0601
▁starling	-10.0602
▁pai	-10.0618
▁threaten	-10.062
innis	-10.0625
▁organiz	-10.0625
▁vi	-10.0642
▁rescue	-10.0646
ate	-10.0654
▁necessar	-10.0671
▁multipl	-10.0673
▁flank	-10.0679
▁opinion	-10.0682
▁kg	-10.0685
▁37	-10.069
stream	-10.0718
▁label	-10.0728
▁civilian	-10.076
▁zone	-10.0761
▁sr	-10.0783
▁divid	-10.0787
▁feed	-10.081
▁48	-10.0817
bert	-10.0825
▁stopp	-10.0826
▁chance	-10.0827
▁rug	-10.0829
▁dissipat	-10.0837
▁unique	-10.0837
13	-10.0838
▁observation	-10.0841
▁storyline	-10.0844
▁die	-10.0848
kept	-10.085
▁self	-10.0874
▁understand	-10.0875
ble	-10.0876
lie	-10.0879
▁mag	-10.0885
il	-10.0894
▁biograph	-10.0895
knowledge	-10.0917
▁administration	-10.0917
▁jupiter	-10.0917
▁clean	-10.0918
▁fung	-10.0929
▁revolution	-10.0932
▁generation	-10.0933
▁respect	-10.0934
▁victoria	-10.0953
▁cave	-10.0969
▁pine	-10.0971
▁dut	-10.0977
urban	-10.0983
▁buri	-10.0988
right	-10.0994
▁51	-10.0995
▁restaurant	-10.0997
▁depth	-10.0997
▁representative	-10.0997
▁criticism	-10.1005
▁occupie	-10.102
igan	-10.1028
▁treatment	-10.1028
▁drama	-10.1042
▁ode	-10.1056
▁solo	-10.1056
▁famous	-10.1073
diff	-10.1077
▁consecutive	-10.1079
▁interchange	-10.1079
adelphi	-10.1079
▁cardinal	-10.1079
▁greek	-10.1079
▁legend	-10.1081
▁map	-10.1085
▁nomination	-10.1087
▁prov	-10.1087
▁finding	-10.1123
▁promot	-10.1129
▁craz	-10.1161
▁article	-10.1161
▁drum	-10.1162
▁magic	-10.1169
▁im	-10.1169
▁airline	-10.1174
▁val	-10.1182
▁ir	-10.1186
▁vice	-10.1189
▁negative	-10.1201
▁statement	-10.1213
▁secretar	-10.1215
▁kent	-10.1237
▁der	-10.1239
▁obtain	-10.1243
▁invasion	-10.1244
▁operate	-10.1249
▁challenge	-10.1252
▁guard	-10.1263
id	-10.1266
▁op	-10.1274
▁extra	-10.1291
▁49	-10.1298
▁instrument	-10.1309
▁approv	-10.131
▁register	-10.1327
▁senior	-10.1327
omas	-10.1327
▁column	-10.1327
▁candidate	-10.1327
▁dvd	-10.1328
▁anonymous	-10.1328
▁floor	-10.1332
▁twin	-10.1337
▁teacher	-10.1337
dom	-10.1344
▁depend	-10.1347
▁alli	-10.1357
tav	-10.1358
older	-10.1389
▁120	-10.1399
▁medica	-10.1404
▁encounter	-10.1411
▁sector	-10.1412
▁congress	-10.1413
▁plain	-10.1414
▁types	-10.1435
▁crime	-10.1444
▁teaching	-10.1447
▁dog	-10.1449
▁youth	-10.1454
af	-10.1456
der	-10.146
▁shoot	-10.1463
▁manag	-10.1469
▁bid	-10.1469
10	-10.1475
▁mouth	-10.1481
den	-10.149
crete	-10.1498
▁divine	-10.1504
▁rival	-10.1505
▁jim	-10.1509
▁seek	-10.151
▁connection	-10.1515
▁weight	-10.1523
eval	-10.1528
▁hm	-10.1533
shore	-10.1543
▁inch	-10.1548
▁door	-10.1552
sea	-10.1556
▁mik	-10.1567
▁architectur	-10.1569
▁contribut	-10.1572
▁gradual	-10.1581
▁resign	-10.1581
▁communication	-10.1582
▁excavation	-10.1582
▁bright	-10.1587
▁outer	-10.1589
▁mich	-10.1593
▁passage	-10.1593
the	-10.1597
▁fa	-10.1599
▁refer	-10.1606
▁bol	-10.1622
▁abu	-10.163
▁indicat	-10.1636
▁constantin	-10.1649
▁starr	-10.1651
▁miner	-10.1652
▁killing	-10.1663
▁arrest	-10.1667
▁snow	-10.1669
▁jain	-10.1685
▁nominat	-10.1695
▁dynast	-10.1719
hood	-10.1721
▁replace	-10.1727
hap	-10.1735
▁cole	-10.1739
gun	-10.1749
▁adapt	-10.1751
12	-10.1753
▁rail	-10.1753
▁sculpture	-10.1754
▁motion	-10.1755
▁slam	-10.1758
▁scholar	-10.1767
▁truth	-10.1774
ues	-10.1774
laid	-10.1777
▁vision	-10.18
osaur	-10.1801
▁53	-10.1816
▁accompani	-10.1842
▁setting	-10.1849
▁firm	-10.1849
▁moon	-10.1852
▁joint	-10.1853
▁ox	-10.1853
▁spend	-10.1864
▁bone	-10.187
▁bc	-10.1883
▁improv	-10.1887
▁ceremon	-10.1905
▁grass	-10.1907
▁deni	-10.1912
▁dropp	-10.1925
▁recall	-10.193
▁communist	-10.1931
▁arrangement	-10.1931
old	-10.1938
▁glass	-10.1939
▁stock	-10.1941
azz	-10.1952
▁champion	-10.1968
ure	-10.1975
▁keat	-10.1979
▁tess	-10.1986
▁64	-10.1988
▁shift	-10.1993
▁ranger	-10.1994
▁decide	-10.2001
▁ring	-10.2002
▁plum	-10.2006
▁supplie	-10.201
▁econom	-10.2011
▁grade	-10.2014
▁kilometre	-10.202
▁technical	-10.202
▁ear	-10.2043
▁strengthen	-10.2047
iz	-10.2061
▁kh	-10.2071
▁mat	-10.2083
▁repair	-10.2084
▁entr	-10.209
▁ho	-10.2095
iro	-10.2097
▁possibilit	-10.211
▁morris	-10.211
▁message	-10.211
▁dutch	-10.2111
▁highlight	-10.2112
gie	-10.2113
▁vote	-10.2131
▁memorial	-10.2134
▁recogniz	-10.2145
▁steve	-10.2153
▁plac	-10.2164
au	-10.2168
▁lover	-10.217
ard	-10.2177
nba	-10.2177
▁formula	-10.218
▁retir	-10.2181
▁dream	-10.2183
▁southwest	-10.2185
▁southeast	-10.2187
hl	-10.2199
▁journal	-10.22
▁budget	-10.2201
▁belief	-10.2201
▁cool	-10.2202
▁mortal	-10.2205
▁aim	-10.2212
hur	-10.2218
▁65	-10.2226
helms	-10.2229
▁sides	-10.2238
▁counter	-10.2241
lisa	-10.2246
led	-10.2247
▁bus	-10.225
▁cart	-10.2252
▁horses	-10.2252
▁har	-10.2259
lin	-10.2274
▁guy	-10.2276
▁formal	-10.2278
▁gray	-10.2287
▁mushroom	-10.2292
▁straight	-10.2292
▁interaction	-10.2296
▁incident	-10.2301
port	-10.2322
▁martin	-10.2327
▁flower	-10.2345
▁europ	-10.2351
▁intelligen	-10.2359
▁gas	-10.2361
▁inform	-10.237
▁transfer	-10.237
▁none	-10.2374
up	-10.238
▁peninsula	-10.2385
▁victim	-10.2385
▁basket	-10.2385
▁surrender	-10.2385
▁torpedo	-10.2385
▁charter	-10.2391
▁principal	-10.2391
▁gord	-10.2395
▁max	-10.242
▁drawing	-10.2422
▁occasion	-10.2428
▁supply	-10.2429
▁mario	-10.2462
▁basin	-10.2468
▁destin	-10.2477
▁inscription	-10.2478
▁tunnel	-10.2478
▁egg	-10.248
▁prepared	-10.248
▁lewis	-10.2481
▁camera	-10.2483
▁ali	-10.2483
▁wolf	-10.2505
▁difference	-10.2525
▁ba	-10.2542
▁flag	-10.2544
60	-10.2547
▁appli	-10.255
▁ritual	-10.2553
gue	-10.2555
ux	-10.2556
▁send	-10.2557
▁recommend	-10.2569
▁lieutenant	-10.2573
▁genre	-10.2573
▁simple	-10.2573
▁drain	-10.2574
▁exit	-10.2574
▁distinguish	-10.2577
▁belt	-10.2579
▁option	-10.258
▁cruiser	-10.2582
▁chemical	-10.2587
▁page	-10.2588
▁issu	-10.26
▁let	-10.2608
▁drop	-10.2618
▁lives	-10.2634
ger	-10.2635
▁importan	-10.2661
▁chronicle	-10.2664
▁household	-10.2668
▁crash	-10.2669
▁theater	-10.2672
▁combination	-10.2672
▁engag	-10.2673
▁debate	-10.2675
▁mc	-10.2678
▁twel	-10.2684
▁russian	-10.2686
▁rome	-10.2689
▁col	-10.2692
▁garden	-10.2698
▁nathan	-10.2699
▁mont	-10.2707
▁driver	-10.2709
▁organ	-10.2717
▁verse	-10.2718
▁sho	-10.2719
▁judge	-10.2722
▁mega	-10.2724
▁prompt	-10.2725
ett	-10.2731
▁sail	-10.2733
▁juan	-10.2736
▁wait	-10.2738
▁paint	-10.2739
ural	-10.275
bridge	-10.2753
▁warm	-10.2754
jill	-10.2755
▁attorney	-10.2764
▁cloud	-10.2764
▁interior	-10.2765
▁holding	-10.2765
▁prize	-10.2766
▁intersection	-10.2769
▁130	-10.2775
▁massive	-10.2778
▁ro	-10.2779
▁pull	-10.2781
ire	-10.2789
▁bottom	-10.2791
▁tend	-10.2811
▁essential	-10.2822
▁maria	-10.2849
▁tie	-10.2853
▁fin	-10.2856
spread	-10.2856
liu	-10.2859
▁avenue	-10.2861
▁minim	-10.2863
▁agenc	-10.2866
▁creator	-10.2868
▁remark	-10.291
▁hell	-10.2911
▁bear	-10.2917
▁rul	-10.2918
▁reduce	-10.2934
11	-10.2939
▁cat	-10.2941
▁constitution	-10.2952
▁700	-10.2959
▁earthquake	-10.2959
▁unusual	-10.2959
▁muslim	-10.2959
▁professor	-10.2959
▁wedding	-10.2959
▁fashion	-10.296
▁objective	-10.2967
ious	-10.2973
▁penalt	-10.2976
▁vot	-10.2977
▁pr	-10.2981
▁hir	-10.3001
▁fresh	-10.3007
▁43	-10.3028
▁batsm	-10.3036
▁attach	-10.3058
▁spirit	-10.3058
▁chorus	-10.306
▁steel	-10.3064
▁palace	-10.3068
▁macle	-10.307
▁spore	-10.308
▁joe	-10.3082
▁settler	-10.3095
▁skill	-10.3096
var	-10.3099
▁chel	-10.3107
▁reading	-10.3123
▁winner	-10.3125
▁folk	-10.3125
new	-10.3131
▁schedul	-10.3134
evita	-10.3138
▁weak	-10.314
▁dismiss	-10.3141
▁skin	-10.3141
▁strike	-10.3145
▁antho	-10.3151
▁56	-10.3157
▁eagle	-10.3158
▁eleven	-10.3158
▁portrait	-10.3158
▁volunteer	-10.3158
▁assistant	-10.3159
▁librar	-10.3162
▁fellow	-10.3162
▁electronic	-10.3164
▁soil	-10.3164
▁chamber	-10.3165
▁admiral	-10.3165
▁survivor	-10.3165
▁thirt	-10.3169
med	-10.3173
▁favor	-10.3174
▁mu	-10.318
▁spac	-10.3185
▁billion	-10.3189
▁democrat	-10.3193
water	-10.3199
etic	-10.32
▁address	-10.3208
▁purchase	-10.3209
les	-10.321
ha	-10.3221
ong	-10.3222
▁boundar	-10.3223
von	-10.3223
▁bit	-10.3228
▁dry	-10.3231
▁evening	-10.3249
▁happ	-10.3253
▁controvers	-10.3258
▁retreat	-10.3259
▁honour	-10.3259
▁fuel	-10.326
evil	-10.3266
▁dominat	-10.3272
▁passe	-10.3277
▁retire	-10.3282
▁fictional	-10.3288
▁clock	-10.33
▁electric	-10.3302
▁recogni	-10.3309
▁aml	-10.3324
▁bosto	-10.3332
▁charit	-10.3342
gas	-10.3348
▁williams	-10.3354
▁magn	-10.3356
▁jurchen	-10.3361
▁split	-10.3361
▁daniel	-10.3362
▁predator	-10.3363
▁archaeologist	-10.3363
vert	-10.3365
▁estate	-10.3365
▁preserv	-10.3383
▁defin	-10.3383
▁ign	-10.3387
▁cd	-10.3404
burn	-10.3417
▁wil	-10.3418
▁graphic	-10.3422
▁brook	-10.3426
sses	-10.3426
▁card	-10.3433
▁politic	-10.3438
▁acquir	-10.3442
▁deriv	-10.345
▁protagonist	-10.3464
▁remnant	-10.3464
▁sweet	-10.3464
▁platform	-10.3464
▁passenger	-10.3464
pping	-10.3465
▁journalist	-10.3465
▁strand	-10.3466
▁isabel	-10.3466
▁academic	-10.3475
▁800	-10.3475
▁bow	-10.3482
glades	-10.349
▁disc	-10.3501
▁ches	-10.3504
▁trad	-10.3506
▁composer	-10.3512
▁declin	-10.3516
▁photograph	-10.354
▁rebel	-10.354
▁bon	-10.3544
▁mo	-10.3555
▁disappear	-10.3568
▁dublin	-10.3569
▁imperial	-10.3569
▁alternative	-10.3569
▁spell	-10.3571
mar	-10.3572
▁possession	-10.3576
▁asia	-10.3594
▁tall	-10.3597
▁afterward	-10.3597
▁apart	-10.3608
▁layer	-10.3615
▁gross	-10.3624
▁exchange	-10.3626
▁shar	-10.3631
▁easi	-10.3634
▁sol	-10.3658
▁arsen	-10.3677
▁preparation	-10.3677
▁charm	-10.369
▁establishment	-10.3698
▁soft	-10.37
▁46	-10.371
▁alien	-10.3722
▁impress	-10.3739
▁arrive	-10.3751
▁57	-10.3758
▁publisher	-10.3761
▁41	-10.3761
▁scholars	-10.3764
▁bart	-10.3772
▁egypt	-10.3779
▁kang	-10.3779
▁faith	-10.378
▁legac	-10.3781
▁variation	-10.3781
▁classifi	-10.3788
▁praise	-10.3794
j	-10.38
▁shap	-10.3804
▁54	-10.3809
▁promote	-10.3814
▁invit	-10.382
▁grey	-10.382
▁cake	-10.3823
oise	-10.3824
com	-10.3826
ego	-10.3826
▁adding	-10.3831
▁root	-10.3847
▁table	-10.3858
▁graph	-10.3858
▁explor	-10.3881
rie	-10.3884
▁regime	-10.3887
▁fountain	-10.3888
▁speech	-10.3888
▁douglas	-10.3888
▁application	-10.3888
▁steam	-10.3889
▁galler	-10.3891
▁renam	-10.3892
▁romantic	-10.3894
▁knot	-10.3895
▁min	-10.3901
▁heat	-10.3902
▁atmosphere	-10.3903
▁conservati	-10.3905
▁da	-10.3906
▁sole	-10.3917
▁proposal	-10.3922
▁industrial	-10.393
▁improve	-10.393
▁basic	-10.3933
▁eyes	-10.3936
▁110	-10.3947
▁worth	-10.396
ribbe	-10.3962
▁ja	-10.3973
▁corn	-10.3977
▁survive	-10.3977
▁164	-10.3979
▁finds	-10.3984
▁doubt	-10.3986
cent	-10.3992
tory	-10.3993
▁surround	-10.3995
▁sponsor	-10.3996
▁unsuccessful	-10.3996
▁submarine	-10.3996
▁exclusive	-10.3998
▁crop	-10.3998
▁colonel	-10.4
▁leaders	-10.4001
▁isolat	-10.4009
▁lay	-10.4009
▁mad	-10.4014
▁moral	-10.4022
▁merc	-10.4027
▁bann	-10.403
▁gil	-10.4054
▁wins	-10.4055
▁yan	-10.406
ill	-10.4064
▁ital	-10.4074
▁govern	-10.4101
▁enterprise	-10.4106
▁affair	-10.4106
▁jersey	-10.4106
▁expert	-10.4106
▁convoy	-10.4106
▁roof	-10.4107
▁doctor	-10.4107
▁panel	-10.4108
30	-10.411
▁struggle	-10.4111
▁sunday	-10.4112
▁walter	-10.4112
▁179	-10.4123
▁pole	-10.4124
▁motor	-10.4129
▁spoke	-10.414
▁cre	-10.4158
come	-10.416
abilit	-10.4161
oslo	-10.4167
▁circulat	-10.4169
ier	-10.4171
▁estimate	-10.4173
▁defender	-10.4175
▁96	-10.4178
▁raise	-10.4196
▁swed	-10.4213
▁iguanodon	-10.4213
▁favorite	-10.4218
▁roger	-10.4218
▁hindu	-10.4222
gé	-10.4223
▁supposed	-10.4224
▁battleship	-10.4225
▁successor	-10.4225
▁soul	-10.4226
▁price	-10.4227
▁albert	-10.423
▁columbia	-10.4236
▁regional	-10.4237
▁wish	-10.4239
▁mere	-10.424
▁emotional	-10.4241
▁bana	-10.425
20	-10.4253
▁cam	-10.4254
onica	-10.4254
▁santa	-10.4255
▁picture	-10.4255
▁signal	-10.4255
▁nois	-10.4261
▁programme	-10.4272
▁parallel	-10.4273
▁hip	-10.4284
▁witch	-10.4286
▁alexand	-10.4293
mer	-10.4303
▁activis	-10.4303
▁emerg	-10.4305
▁usa	-10.4318
▁railroad	-10.433
▁monarch	-10.433
▁hibari	-10.433
▁colonial	-10.4333
▁investigation	-10.4335
▁lo	-10.4336
▁mode	-10.4338
▁rat	-10.4347
▁medal	-10.4348
▁alter	-10.4353
▁constant	-10.4353
▁secure	-10.4357
▁shooting	-10.4366
ti	-10.4372
▁equal	-10.4377
▁holly	-10.4378
▁fun	-10.4382
▁christ	-10.4383
▁lee	-10.4383
▁authors	-10.4393
fare	-10.4402
▁wa	-10.4408
ich	-10.4424
▁mur	-10.4425
▁deploy	-10.444
ruli	-10.4443
▁component	-10.4443
▁download	-10.4444
▁sufficient	-10.4445
▁romani	-10.4449
▁inspiration	-10.445
▁au	-10.4453
▁venu	-10.4454
▁owner	-10.4457
▁commandment	-10.4463
▁visitor	-10.4463
▁introduction	-10.4467
we	-10.4475
hi	-10.4477
▁76	-10.4477
beth	-10.4478
oba	-10.4484
brien	-10.4485
▁edit	-10.4494
▁bir	-10.4494
attle	-10.4513
▁arms	-10.4521
▁solid	-10.4522
▁aware	-10.4526
▁lands	-10.4528
▁rox	-10.4533
▁pound	-10.4538
▁160	-10.4539
▁repeated	-10.4545
▁ice	-10.4545
era	-10.455
za	-10.4552
▁ai	-10.4553
▁haiti	-10.4554
▁trust	-10.4558
▁kitsune	-10.4558
▁resource	-10.4558
▁suprem	-10.4558
▁offense	-10.4558
▁neck	-10.4559
▁attain	-10.4559
▁dramatic	-10.4561
▁howard	-10.4563
▁measur	-10.4578
▁dispute	-10.4584
▁step	-10.46
▁fix	-10.4602
▁bat	-10.4617
▁tomb	-10.4618
▁97	-10.4624
▁worship	-10.4635
▁opposit	-10.4653
▁load	-10.4666
▁catch	-10.467
▁rhythm	-10.4675
▁gwen	-10.4675
▁brazil	-10.4675
▁puzzle	-10.4675
▁exact	-10.4677
▁squad	-10.4681
▁township	-10.4683
▁cha	-10.4692
▁sample	-10.4694
▁samu	-10.4698
siege	-10.4699
▁62	-10.4701
▁contest	-10.4706
▁entit	-10.4707
▁slave	-10.4714
▁designation	-10.4716
▁trouble	-10.4723
▁175	-10.4729
▁plane	-10.4737
ership	-10.4738
▁pitcher	-10.474
▁continent	-10.4741
▁250	-10.4744
▁shipp	-10.4747
▁95	-10.4756
▁supporter	-10.4761
▁rio	-10.4781
▁amateur	-10.4792
▁desert	-10.4792
▁mechanic	-10.4792
▁pregnan	-10.4792
▁outstanding	-10.4793
▁talent	-10.4793
▁adaptation	-10.4796
aska	-10.4797
▁replacement	-10.4799
▁manner	-10.4806
▁inner	-10.482
▁capacit	-10.4825
▁mine	-10.4841
▁brand	-10.4847
▁md	-10.4848
ais	-10.4852
▁shore	-10.4854
me	-10.4856
▁fran	-10.4865
▁prove	-10.4873
ell	-10.4882
▁environment	-10.4887
▁blow	-10.4888
▁warning	-10.4889
▁attribut	-10.4902
▁exhibit	-10.4902
▁fre	-10.4905
▁certifi	-10.4911
▁sudden	-10.4911
utc	-10.4912
▁sequel	-10.4913
▁duke	-10.4913
▁substantial	-10.4913
ffman	-10.4917
▁55	-10.4917
▁tourist	-10.4917
▁bath	-10.4922
▁venue	-10.4934
▁roads	-10.4936
▁achieve	-10.4937
▁pen	-10.4947
▁bru	-10.496
▁exception	-10.496
▁accus	-10.4963
ily	-10.4963
▁61	-10.4971
▁champions	-10.4981
▁arrang	-10.4982
▁argue	-10.4993
▁encourag	-10.4996
▁sin	-10.4997
▁gra	-10.4999
▁tide	-10.5001
▁prey	-10.501
▁signing	-10.5012
▁bound	-10.5017
itude	-10.5019
▁confus	-10.5031
▁syn	-10.5031
▁pupil	-10.5032
▁anzac	-10.5032
▁superior	-10.5032
▁rob	-10.5036
▁hat	-10.5065
▁joy	-10.5071
▁instance	-10.5071
fer	-10.5089
▁identit	-10.509
▁bomb	-10.5097
▁homer	-10.5101
▁convention	-10.512
90	-10.5128
▁94	-10.5134
▁stevens	-10.514
som	-10.5142
▁engage	-10.5143
▁detect	-10.5144
▁72	-10.5151
wealth	-10.5151
▁frederick	-10.5154
▁scientific	-10.5154
▁dinosaur	-10.5154
▁moderate	-10.5154
▁responsibilit	-10.5154
▁expansion	-10.5154
▁loose	-10.5154
▁guardian	-10.5156
▁knight	-10.5157
▁global	-10.5172
▁selection	-10.518
▁schedule	-10.5183
ippi	-10.5183
▁belong	-10.5183
▁admitt	-10.5202
▁drug	-10.5203
▁symbol	-10.5213
▁purchas	-10.5215
▁bark	-10.5222
▁cris	-10.5224
▁112	-10.5226
▁tactic	-10.5242
▁kur	-10.5245
▁driv	-10.5255
▁su	-10.526
▁correct	-10.5269
▁notabl	-10.5269
▁proper	-10.5274
▁benefit	-10.5277
▁labour	-10.5277
▁recruit	-10.5277
▁warrior	-10.5277
▁stephen	-10.5277
▁patron	-10.5277
▁criminal	-10.5278
▁initiative	-10.5281
▁tu	-10.5284
▁surge	-10.5292
▁harris	-10.5308
▁biographer	-10.5313
▁commando	-10.532
▁wine	-10.5324
▁carl	-10.5325
▁incorporat	-10.5331
dna	-10.5333
▁nc	-10.5342
ix	-10.5345
lb	-10.5346
pa	-10.5351
▁touch	-10.5373
▁mole	-10.5378
evo	-10.538
▁accident	-10.5383
ak	-10.5388
▁coal	-10.5393
▁77	-10.5393
▁carrie	-10.5396
▁dot	-10.5397
▁deposit	-10.5401
▁convecti	-10.5402
▁surprise	-10.5402
▁plunkett	-10.5402
▁sapr	-10.5402
▁stefan	-10.5402
▁recreation	-10.5403
▁hugh	-10.5403
▁climate	-10.5403
▁organisation	-10.5405
▁disaster	-10.5406
if	-10.5409
ius	-10.5412
▁gill	-10.5421
araj	-10.5435
▁franchise	-10.5437
▁researcher	-10.544
union	-10.5443
▁cook	-10.5446
▁capabl	-10.5448
▁177	-10.545
night	-10.5461
board	-10.5478
▁cycle	-10.5482
▁strateg	-10.5498
▁ruler	-10.55
▁tim	-10.5512
▁convince	-10.5529
▁eliza	-10.5529
▁ghost	-10.5529
▁holiday	-10.5529
▁predecessor	-10.5529
▁wrong	-10.5529
▁heaven	-10.5529
▁labor	-10.553
▁dangerous	-10.553
▁documentar	-10.5533
▁preferr	-10.5534
▁1890	-10.5535
ament	-10.5537
▁proceed	-10.5543
berg	-10.5547
▁interne	-10.555
▁suit	-10.5553
▁internal	-10.5558
▁bigge	-10.5563
▁missi	-10.5572
▁fra	-10.5576
▁ti	-10.5593
nce	-10.5608
▁les	-10.5611
ternal	-10.5623
▁wherea	-10.5627
▁lose	-10.5629
arian	-10.5639
▁flat	-10.5643
▁laborator	-10.5657
▁diameter	-10.5657
▁81	-10.5657
▁indig	-10.5658
▁shark	-10.5659
▁carr	-10.5663
▁banks	-10.5663
▁kai	-10.5675
▁consistent	-10.5678
zong	-10.5688
eath	-10.569
erard	-10.5701
▁holds	-10.5701
▁statistic	-10.5708
▁strip	-10.5722
▁travell	-10.5726
▁han	-10.5735
▁iv	-10.5752
▁prison	-10.5752
▁experiment	-10.5754
▁176	-10.5755
▁shop	-10.5762
scar	-10.5774
▁voyage	-10.5787
▁wicket	-10.5788
▁lenno	-10.579
nek	-10.5796
▁85	-10.5797
▁kilm	-10.5805
▁transition	-10.5808
▁korean	-10.5808
▁tribes	-10.5814
tial	-10.5816
▁completion	-10.5817
▁cub	-10.583
▁mayor	-10.5834
▁lad	-10.585
▁dad	-10.5851
what	-10.5863
▁vary	-10.588
▁handl	-10.5885
▁patrol	-10.5889
▁sort	-10.5903
▁cory	-10.5903
▁assum	-10.5905
ale	-10.5907
▁cult	-10.5918
▁jerusalem	-10.5918
▁scientist	-10.5918
▁netherland	-10.5918
▁turret	-10.5918
▁monitor	-10.5919
▁campbel	-10.5919
▁reconstruction	-10.5921
erran	-10.5923
ina	-10.5924
▁notice	-10.5926
▁stretch	-10.593
▁queens	-10.5941
▁conservat	-10.5942
▁tape	-10.5944
▁determine	-10.5945
lan	-10.5948
▁tax	-10.5961
▁canon	-10.5965
▁argentin	-10.5977
▁imagine	-10.5985
▁59	-10.5997
▁87	-10.6008
worth	-10.6011
sis	-10.6014
▁wilde	-10.6016
▁advertis	-10.6018
▁quin	-10.6021
▁orchestra	-10.6023
▁coup	-10.6027
▁listen	-10.603
▁lords	-10.604
▁settl	-10.6041
iva	-10.6046
herit	-10.6047
▁eliminat	-10.6049
▁archbishop	-10.6052
▁context	-10.6052
▁segment	-10.6052
▁simultaneous	-10.6052
▁relegat	-10.6052
▁gift	-10.6052
▁fifteen	-10.6052
▁pleasure	-10.6052
▁watershed	-10.6052
ook	-10.6058
res	-10.606
▁sword	-10.606
▁norman	-10.6064
▁contribution	-10.6066
▁rhyme	-10.6068
▁par	-10.6105
▁format	-10.6108
▁hang	-10.6113
ir	-10.6153
▁hol	-10.6159
▁kea	-10.6161
▁ash	-10.6163
▁vic	-10.6165
iston	-10.6176
▁rid	-10.6176
▁possess	-10.6181
▁junior	-10.6187
▁knock	-10.6187
▁helmet	-10.6187
▁remember	-10.6188
▁reconn	-10.619
▁clay	-10.6192
▁hills	-10.6194
▁committ	-10.6199
▁tee	-10.6208
▁arc	-10.6211
▁cabin	-10.6211
▁1900	-10.6212
lay	-10.6213
ockey	-10.6216
▁favour	-10.6217
▁circle	-10.6225
▁ranking	-10.6231
▁carol	-10.6238
▁francisc	-10.6239
ni	-10.6257
▁pa	-10.6261
kans	-10.6274
body	-10.6275
olar	-10.6275
▁ensure	-10.6282
▁stem	-10.6295
▁jar	-10.6307
▁transform	-10.6307
▁founder	-10.6315
▁offering	-10.6323
▁beautiful	-10.6324
▁dialogue	-10.6324
▁fragment	-10.6324
▁lbw	-10.6325
▁buy	-10.6329
▁adj	-10.633
▁bush	-10.633
▁fei	-10.6344
▁hunter	-10.6351
▁aeri	-10.6352
▁jeff	-10.6355
▁rod	-10.6357
▁universal	-10.6359
nada	-10.6364
▁radi	-10.6365
▁developer	-10.6365
▁tip	-10.6368
ied	-10.6383
▁mental	-10.6389
▁visibl	-10.639
▁ré	-10.6404
down	-10.6409
▁ep	-10.6409
non	-10.642
▁dean	-10.642
▁wrestl	-10.6441
▁johnston	-10.6448
nivers	-10.6461
▁jay	-10.6462
▁puppet	-10.6463
▁implement	-10.6463
▁pioneer	-10.6463
▁platoon	-10.6463
▁tiger	-10.6464
▁restoration	-10.6465
▁crusader	-10.6467
▁achievement	-10.6468
▁elder	-10.6469
▁grace	-10.647
▁behavior	-10.6471
▁inde	-10.6474
▁republican	-10.6474
▁assert	-10.6474
▁congo	-10.6476
▁dun	-10.6483
▁discussion	-10.6485
▁boom	-10.6488
▁intensifi	-10.6493
ba	-10.6502
▁poll	-10.6506
▁meter	-10.6517
▁sha	-10.6528
▁wasp	-10.6549
▁gu	-10.6561
ryan	-10.6562
▁designer	-10.6565
▁file	-10.6572
70	-10.6585
▁hart	-10.66
▁patric	-10.6601
▁occupation	-10.6604
▁prerogative	-10.6604
▁emphasis	-10.6604
▁cinema	-10.6604
▁escort	-10.6605
aware	-10.6606
▁persian	-10.6607
▁employee	-10.6608
▁trace	-10.661
specie	-10.6621
▁shrine	-10.6622
▁kid	-10.6622
▁kn	-10.6623
▁generat	-10.6624
▁install	-10.6636
▁weir	-10.6637
mbled	-10.6638
ac	-10.6641
▁oh	-10.6643
to	-10.6655
metric	-10.6659
ai	-10.6683
mount	-10.6687
viation	-10.669
▁98	-10.6693
mobile	-10.6696
▁cb	-10.6696
▁li	-10.6697
▁corporation	-10.6698
▁hami	-10.67
▁mccart	-10.6704
ide	-10.6705
▁impossib	-10.6713
▁thin	-10.6715
▁profit	-10.6717
▁compete	-10.6726
▁minist	-10.6732
▁behavio	-10.6738
sex	-10.6746
▁artificial	-10.6746
▁choir	-10.6747
▁guilt	-10.6747
▁conclusion	-10.6747
▁controversial	-10.6748
▁collaboration	-10.6751
▁ruin	-10.6753
throne	-10.6755
▁lion	-10.6756
▁leonard	-10.6761
▁mal	-10.6761
acent	-10.6762
▁melod	-10.6763
▁cape	-10.6769
▁string	-10.6773
▁pursue	-10.6776
▁muscari	-10.6783
ible	-10.6783
▁dock	-10.6784
▁prisoner	-10.6788
▁termin	-10.6793
set	-10.6799
▁medit	-10.6819
▁rang	-10.6821
▁matt	-10.6821
mura	-10.6823
▁opposite	-10.6823
ite	-10.6834
▁intention	-10.6856
▁characteriz	-10.6858
ilit	-10.6865
▁code	-10.6866
dell	-10.6875
math	-10.6878
▁molecule	-10.6885
▁cloth	-10.6887
ombat	-10.6887
ge	-10.6891
▁streak	-10.6891
▁observator	-10.6891
▁spiritual	-10.6891
▁feather	-10.6892
▁lei	-10.6894
▁narrative	-10.6896
▁1880	-10.6897
▁jesu	-10.6897
▁manga	-10.69
▁originat	-10.6905
▁crest	-10.6907
▁owen	-10.6908
▁hydro	-10.6925
▁garc	-10.6928
▁magnet	-10.6929
▁hump	-10.6929
▁muld	-10.693
herz	-10.6932
▁rainf	-10.6935
▁restrict	-10.6938
▁fate	-10.694
▁runner	-10.6943
after	-10.6946
▁waters	-10.695
▁hunting	-10.6952
▁71	-10.6955
▁gang	-10.6957
▁eas	-10.6969
▁altar	-10.6977
▁warn	-10.6978
rising	-10.6983
▁intense	-10.6989
▁chas	-10.6993
▁lap	-10.6995
▁aston	-10.7012
tendo	-10.7013
▁expens	-10.7014
▁tone	-10.7017
table	-10.7018
▁tribute	-10.7038
▁goddess	-10.7038
▁audio	-10.7039
▁armour	-10.7039
▁caval	-10.7039
▁perspective	-10.7039
▁equivalent	-10.7039
▁slide	-10.7041
▁confession	-10.7041
▁wealth	-10.7042
▁improvement	-10.7044
ri	-10.7045
▁islam	-10.7047
▁cease	-10.7053
▁criticis	-10.7053
▁pure	-10.7055
▁lancas	-10.7055
▁parish	-10.7056
rence	-10.7066
▁heads	-10.7075
▁divers	-10.708
▁gramm	-10.7093
istic	-10.7094
istan	-10.7096
▁recognise	-10.7101
▁stream	-10.7112
▁stands	-10.7117
▁collapse	-10.7119
ph	-10.712
▁tel	-10.7122
▁pra	-10.7132
▁sus	-10.7134
kins	-10.7145
▁sit	-10.7148
am	-10.7158
▁roy	-10.7165
▁serb	-10.7166
▁predict	-10.7178
▁66	-10.7182
munition	-10.7188
▁erect	-10.7188
▁shakespeare	-10.7188
▁scheme	-10.7188
▁scout	-10.7188
▁drink	-10.7188
▁comparison	-10.7188
▁exposure	-10.7188
▁extension	-10.7188
▁definition	-10.7189
▁infrastructur	-10.719
▁jacket	-10.719
▁renew	-10.7193
▁residence	-10.7194
▁waterfall	-10.7196
▁witness	-10.7203
▁classe	-10.7212
▁emergenc	-10.7216
▁environmental	-10.7219
▁sang	-10.7222
▁compris	-10.7225
▁shao	-10.7233
▁79	-10.7248
atu	-10.725
▁corner	-10.7253
ga	-10.7254
▁illustrat	-10.7295
▁ride	-10.7296
▁exercise	-10.7304
▁pan	-10.7317
▁moore	-10.732
ab	-10.7322
▁shoulder	-10.7334
▁ap	-10.7338
▁provision	-10.7339
▁diamond	-10.7339
▁circumstance	-10.734
▁absence	-10.7341
▁canyon	-10.7341
▁resistan	-10.7343
▁trick	-10.7345
▁deck	-10.7349
▁speaker	-10.7356
▁zoo	-10.7358
amino	-10.7359
▁architect	-10.7359
▁depiction	-10.737
▁isle	-10.7374
▁demonstrat	-10.7377
▁associate	-10.7382
▁dag	-10.7385
ors	-10.7388
achus	-10.739
▁cent	-10.7394
▁narrat	-10.7402
▁diet	-10.7403
▁allah	-10.7406
▁myth	-10.7415
▁spin	-10.7417
▁dominica	-10.742
seas	-10.7428
▁observer	-10.7437
▁fia	-10.7448
▁princes	-10.7454
▁cambodia	-10.7459
ata	-10.7461
▁humanit	-10.7471
▁sacr	-10.7475
▁99	-10.7484
▁exhaust	-10.7493
▁manuscript	-10.7493
▁acclaim	-10.7493
▁garrison	-10.7493
▁geoff	-10.7493
▁wicca	-10.7493
ol	-10.7494
▁classification	-10.7494
▁deem	-10.7494
▁senator	-10.7494
▁pav	-10.7496
▁daw	-10.7497
▁brick	-10.7498
▁huge	-10.7501
▁ji	-10.7502
▁argument	-10.7503
▁advisor	-10.751
▁valu	-10.7516
▁sharp	-10.7517
▁69	-10.7529
▁punt	-10.753
▁lu	-10.7531
▁celebrat	-10.7537
▁kings	-10.7537
ou	-10.7538
▁jet	-10.7551
▁introduce	-10.7568
▁mon	-10.7568
▁influen	-10.7569
▁boss	-10.7569
▁resemble	-10.7571
▁ku	-10.7573
▁sale	-10.7576
graf	-10.7579
▁assassinat	-10.7583
▁separat	-10.7594
over	-10.7596
▁promis	-10.7608
owa	-10.7611
▁ben	-10.7614
▁lab	-10.7623
zed	-10.7628
▁listing	-10.7629
▁manufactur	-10.7635
▁remove	-10.7641
▁phoeni	-10.7644
▁interpret	-10.7646
▁extinct	-10.7649
▁answer	-10.7649
▁departure	-10.765
▁wander	-10.765
▁accompany	-10.765
▁pipe	-10.765
▁protestant	-10.7651
tan	-10.7651
▁reinforcement	-10.7652
▁false	-10.7652
▁oak	-10.7653
▁thai	-10.7653
▁pool	-10.7654
▁loan	-10.7656
▁barbar	-10.7663
▁destructi	-10.7663
▁palestin	-10.7669
gram	-10.7672
▁presentation	-10.7679
▁expect	-10.7683
▁creative	-10.7689
life	-10.7691
▁shirt	-10.7696
é	-10.7704
ana	-10.7705
▁baker	-10.7713
▁marks	-10.7724
▁kod	-10.7726
▁fift	-10.7761
▁philosoph	-10.7774
▁pace	-10.7777
▁showing	-10.7782
ca	-10.7782
▁beside	-10.7783
▁chick	-10.7793
▁municipal	-10.7795
▁glob	-10.7803
▁ambassador	-10.7808
▁bureau	-10.7808
▁catechism	-10.7808
▁colleague	-10.7808
▁divorce	-10.7808
▁disappoint	-10.7808
▁scatter	-10.7808
▁tributar	-10.7808
▁jackrabbit	-10.7808
▁hull	-10.7808
▁terrorist	-10.7811
▁conversation	-10.7811
▁mixture	-10.7812
▁concentration	-10.7814
▁rhodesia	-10.7816
▁kev	-10.7818
ji	-10.7821
▁blame	-10.7823
▁compet	-10.783
▁uncle	-10.7839
gs	-10.7839
▁undergo	-10.7847
▁dc	-10.7853
▁nurse	-10.7853
▁q	-10.787
▁crush	-10.7872
borne	-10.7873
▁hunt	-10.7876
▁crake	-10.7889
yle	-10.7901
nelli	-10.7906
▁furt	-10.7908
▁122	-10.7909
▁cruise	-10.7919
▁graduat	-10.7921
inje	-10.7927
nell	-10.7928
▁exten	-10.7928
lies	-10.793
▁organis	-10.7935
▁revolutionar	-10.7939
▁execut	-10.7945
fred	-10.7946
▁devi	-10.795
▁web	-10.7956
▁162	-10.7961
▁sil	-10.7961
▁jew	-10.7962
▁israeli	-10.7965
▁expos	-10.7967
▁skull	-10.7969
▁nickname	-10.7969
▁saturday	-10.797
▁bearing	-10.797
▁fernand	-10.797
▁krak	-10.797
▁aggressive	-10.797
▁doctrine	-10.797
▁dynamic	-10.797
▁blocks	-10.7972
efa	-10.7974
▁elevation	-10.7975
▁sleep	-10.7975
▁dave	-10.7977
limo	-10.7978
ski	-10.798
▁des	-10.7984
▁northward	-10.7985
▁fold	-10.7991
cute	-10.8
▁fami	-10.8006
▁philli	-10.8012
ight	-10.8013
▁carv	-10.8028
▁pul	-10.8037
dium	-10.8049
▁suburb	-10.805
▁cu	-10.805
▁partner	-10.8055
▁subt	-10.806
ology	-10.806
▁personalit	-10.8066
dolen	-10.8067
▁kit	-10.8072
▁88	-10.8077
cer	-10.8088
▁import	-10.8094
▁xe	-10.8098
▁lift	-10.8104
40	-10.8109
▁situat	-10.8126
cruz	-10.8128
▁reservoir	-10.8133
▁suspect	-10.8133
▁virtual	-10.8133
▁pirate	-10.8133
▁sixteen	-10.8133
▁hamlet	-10.8133
▁sentiment	-10.8134
▁modifi	-10.8135
light	-10.8136
rell	-10.8137
▁measurement	-10.8144
▁impression	-10.8148
▁useful	-10.8151
▁continuous	-10.8152
▁gather	-10.8153
▁fighter	-10.8156
▁stake	-10.8163
▁cater	-10.8165
rich	-10.817
▁promise	-10.8177
▁glad	-10.8199
▁substitute	-10.82
▁93	-10.8208
▁programm	-10.8217
▁slope	-10.8219
▁earning	-10.822
usta	-10.8228
▁willing	-10.8238
▁monta	-10.8242
boy	-10.8243
eith	-10.8244
▁solution	-10.8264
og	-10.827
▁univers	-10.827
work	-10.8276
ndh	-10.8277
ace	-10.828
arvati	-10.829
▁decorat	-10.8292
bby	-10.8296
▁helicopter	-10.83
▁suicide	-10.83
▁embark	-10.83
▁sugar	-10.83
▁poison	-10.83
▁shelter	-10.83
▁accurate	-10.8301
▁carbon	-10.8301
▁resolution	-10.8302
▁yeo	-10.8303
anime	-10.8303
▁hokie	-10.8303
▁differ	-10.8304
▁eu	-10.8305
▁tight	-10.8306
▁animation	-10.8307
▁requirement	-10.8311
▁sung	-10.8313
lé	-10.8315
▁convers	-10.8317
▁63	-10.8329
mouth	-10.833
▁baron	-10.8333
oit	-10.8334
▁carriage	-10.8352
▁yo	-10.8354
▁aut	-10.8357
▁follower	-10.8367
owi	-10.8376
▁grave	-10.838
▁genetic	-10.8384
▁evan	-10.8385
ather	-10.8388
ware	-10.8389
▁farmer	-10.8389
▁lb	-10.8396
▁meteorolog	-10.8401
▁marc	-10.8405
▁perr	-10.8425
▁physic	-10.8434
▁vii	-10.8435
▁cant	-10.8437
▁custom	-10.844
bo	-10.8442
▁weigh	-10.845
▁user	-10.8452
ron	-10.8454
▁net	-10.8459
▁reli	-10.8461
▁considerabl	-10.8461
▁bridges	-10.8468
▁frigate	-10.8469
▁snake	-10.8469
▁seventeen	-10.8469
▁anthem	-10.8469
▁cecil	-10.847
▁thirteen	-10.847
▁nebr	-10.847
▁substance	-10.847
▁danger	-10.847
▁ticket	-10.847
▁penn	-10.847
▁rac	-10.8471
▁vander	-10.8471
▁patty	-10.8471
lew	-10.8472
▁principle	-10.8472
▁trek	-10.8473
▁switch	-10.8474
▁device	-10.8476
off	-10.8482
▁essay	-10.8483
▁statue	-10.8496
▁coordinat	-10.8499
▁06	-10.8503
▁dense	-10.8505
etts	-10.851
▁expression	-10.8513
▁evacuat	-10.8519
▁citizens	-10.8533
thodo	-10.8534
▁bi	-10.8534
▁inhabit	-10.8535
▁spectr	-10.8537
▁check	-10.8538
▁ru	-10.8557
▁insist	-10.8588
▁authoriz	-10.8596
vi	-10.8596
▁stewar	-10.8607
▁lea	-10.8612
▁elaborate	-10.8622
dot	-10.8624
iana	-10.8636
ray	-10.8642
▁philip	-10.8642
▁absolute	-10.8642
▁yugoslav	-10.8642
▁yankee	-10.8642
▁inhabitant	-10.8642
▁structural	-10.8643
malle	-10.8644
ug	-10.8646
▁hawaiian	-10.8647
ugu	-10.8648
▁pagan	-10.8648
▁haitian	-10.8648
▁goat	-10.865
▁1860	-10.8651
▁revival	-10.8653
▁tool	-10.866
putation	-10.8661
▁runway	-10.8661
▁palm	-10.8667
▁plus	-10.867
▁marry	-10.867
▁vertical	-10.8672
▁89	-10.8679
▁74	-10.868
bn	-10.8682
eigh	-10.8683
state	-10.8683
▁relations	-10.8685
▁phrase	-10.869
▁eric	-10.8694
▁abundan	-10.8699
hg	-10.87
▁controller	-10.8702
▁preced	-10.8707
▁guid	-10.8708
▁ko	-10.8712
▁nick	-10.8714
▁initiat	-10.8715
ck	-10.8716
rna	-10.8717
▁norwa	-10.8718
▁trapp	-10.8721
sky	-10.8725
▁07	-10.8729
▁gi	-10.8732
▁bro	-10.8733
▁ul	-10.8738
▁shear	-10.8738
▁gale	-10.8742
▁loud	-10.8755
egon	-10.8768
▁gust	-10.8771
ization	-10.8778
▁demo	-10.8783
▁temporar	-10.8784
ep	-10.8791
▁complain	-10.8791
▁marl	-10.8793
▁premiere	-10.8806
▁intersect	-10.8808
▁correspond	-10.8813
neil	-10.8817
▁mozambi	-10.8817
▁buoy	-10.8817
▁ethnic	-10.8817
▁fourteen	-10.8817
▁cotton	-10.8818
▁costume	-10.8818
▁detr	-10.8819
▁ballad	-10.8819
▁politician	-10.882
▁barrier	-10.882
▁artwork	-10.8821
▁translation	-10.8826
▁attitude	-10.8826
▁weekend	-10.8827
▁humor	-10.8829
▁attribute	-10.8832
rick	-10.8837
▁pi	-10.8842
▁federation	-10.8844
▁choose	-10.8848
▁funera	-10.8848
▁southeaster	-10.8849
hews	-10.8855
grad	-10.8859
▁strategic	-10.886
lair	-10.8875
▁900	-10.8883
ka	-10.8888
rian	-10.889
▁realiz	-10.889
▁pitt	-10.8893
▁pale	-10.8894
▁ag	-10.8897
▁legislati	-10.8897
▁greg	-10.89
▁restore	-10.8903
ot	-10.8936
▁hi	-10.8942
erff	-10.8942
▁jr	-10.8943
▁wings	-10.8949
tah	-10.8951
▁82	-10.8952
▁tube	-10.8954
▁russia	-10.8963
ecki	-10.8993
▁vegeta	-10.8996
▁battlecruiser	-10.8996
▁revenue	-10.8996
▁suspend	-10.8996
▁tissue	-10.8996
▁hudson	-10.8996
▁liberal	-10.8996
▁circuit	-10.8996
▁celtic	-10.8996
▁absorb	-10.8996
▁metropoli	-10.8997
▁mbar	-10.9001
▁flash	-10.9002
▁scul	-10.9003
▁infection	-10.9003
▁christoph	-10.9006
▁1850	-10.9008
clusion	-10.9009
▁vast	-10.9011
▁turns	-10.9011
▁upset	-10.9012
djo	-10.9028
ae	-10.903
yria	-10.9033
▁burial	-10.9035
ap	-10.9036
▁northeaster	-10.904
▁phone	-10.9051
▁marti	-10.9059
▁arch	-10.906
▁merg	-10.9061
▁artistic	-10.9079
arro	-10.908
ario	-10.9084
▁140	-10.9089
▁barry	-10.9097
anna	-10.9099
▁joke	-10.9104
cake	-10.9106
▁com	-10.9106
▁courts	-10.9111
▁recognize	-10.9125
cation	-10.9129
ner	-10.9138
▁ken	-10.9143
tex	-10.9155
▁challeng	-10.9158
▁67	-10.9159
gner	-10.9162
▁christin	-10.9165
▁mor	-10.9166
▁struggl	-10.917
▁relation	-10.9173
▁73	-10.9175
▁depart	-10.9175
▁frustrat	-10.9178
▁mammal	-10.9178
▁concession	-10.9178
▁consequence	-10.9178
▁shadow	-10.9178
▁supplement	-10.9178
▁magdalen	-10.9178
▁striking	-10.9178
▁perceive	-10.9178
▁taxonom	-10.9178
▁zombie	-10.9178
▁pistol	-10.9178
▁caesar	-10.9178
▁restor	-10.9179
▁readers	-10.9179
▁regulation	-10.9181
▁mood	-10.9183
▁gap	-10.9184
▁ab	-10.9185
▁playoff	-10.9185
▁herald	-10.9186
▁spur	-10.9192
▁sw	-10.9198
▁representation	-10.9199
khand	-10.9201
▁halt	-10.9205
▁lamb	-10.9206
▁jos	-10.9208
▁observe	-10.9212
▁bind	-10.9221
▁troph	-10.9223
▁metallic	-10.9226
han	-10.9231
▁ill	-10.9243
▁chi	-10.9255
ological	-10.9256
▁chase	-10.9258
▁tin	-10.926
▁devote	-10.9263
▁cro	-10.927
wick	-10.9277
▁passion	-10.9277
▁kell	-10.9289
▁typ	-10.9299
▁laws	-10.9299
▁pin	-10.9303
▁br	-10.931
▁arena	-10.931
▁experienc	-10.9318
nathan	-10.9319
▁bald	-10.9322
russel	-10.9343
▁convict	-10.9353
don	-10.9354
▁revis	-10.9354
▁resum	-10.9359
▁accomplish	-10.9359
▁davi	-10.936
▁imprison	-10.9363
▁identify	-10.9363
▁error	-10.9363
▁dozen	-10.9363
▁harbour	-10.9363
▁eighteen	-10.9364
▁biological	-10.9364
▁teammate	-10.9364
▁cargo	-10.9364
▁parade	-10.9365
▁reduction	-10.9368
▁leukemia	-10.937
▁trend	-10.9372
▁05	-10.9376
▁pink	-10.9391
linger	-10.9393
▁pret	-10.9404
▁seiz	-10.9413
▁bible	-10.9416
▁archer	-10.9422
▁ideal	-10.9434
▁alleged	-10.9443
uck	-10.9454
▁seal	-10.9454
▁stra	-10.9486
▁rap	-10.949
▁commissioner	-10.9496
▁holo	-10.9497
▁reader	-10.9505
▁explore	-10.9507
▁emotion	-10.9512
ryce	-10.9521
▁tenth	-10.9521
ling	-10.9523
▁stick	-10.9534
adhe	-10.9538
▁ensu	-10.9539
▁68	-10.9539
ev	-10.9543
▁chevalier	-10.9552
▁dwarf	-10.9552
▁paralympic	-10.9552
▁propagand	-10.9552
▁twentie	-10.9552
▁illegal	-10.9552
▁transmission	-10.9552
▁qedarite	-10.9552
▁shaft	-10.9552
▁iraq	-10.9552
▁decay	-10.9552
▁monster	-10.9552
▁outbreak	-10.9553
▁michel	-10.9554
▁destination	-10.9558
essa	-10.9562
▁investment	-10.9563
▁pe	-10.9564
▁wat	-10.9571
▁appointment	-10.9572
▁christi	-10.9574
▁loyal	-10.9575
▁jur	-10.9575
▁pri	-10.9583
▁ber	-10.9586
▁endur	-10.9586
▁realize	-10.9589
▁pack	-10.959
▁ze	-10.959
▁romanian	-10.9595
▁manufacturer	-10.9595
▁onward	-10.9599
▁profi	-10.9604
aged	-10.9604
▁encourage	-10.9607
cular	-10.9609
lock	-10.961
▁anger	-10.961
bidden	-10.9611
766	-10.9612
▁kir	-10.962
▁kati	-10.9623
▁allen	-10.9628
▁bur	-10.9628
▁178	-10.9631
ke	-10.9663
▁margin	-10.9669
▁fortune	-10.9676
agre	-10.9679
▁indie	-10.968
▁pictures	-10.968
▁incorporate	-10.9681
▁08	-10.9688
▁stoo	-10.969
erial	-10.9695
▁neve	-10.9698
▁emm	-10.9699
▁preserve	-10.9703
gin	-10.9707
▁donat	-10.9711
▁113	-10.9722
stock	-10.9727
power	-10.9736
uff	-10.9739
lotte	-10.974
▁dakota	-10.9744
▁shield	-10.9744
▁uncertain	-10.9744
▁wrapp	-10.9744
▁zinc	-10.9744
▁insect	-10.9744
njam	-10.9744
▁diagnos	-10.9744
▁millenni	-10.9744
▁shock	-10.9744
▁tracy	-10.9744
▁monkey	-10.9744
▁curve	-10.9745
▁viet	-10.9746
▁radical	-10.9747
▁nash	-10.9748
▁beeton	-10.9748
▁negotiation	-10.9748
vina	-10.9749
ize	-10.975
▁monk	-10.975
▁jaw	-10.9752
▁appropriate	-10.9753
▁celebration	-10.9755
▁sink	-10.9757
▁prepare	-10.9759
▁amid	-10.9769
▁cancell	-10.9775
▁madi	-10.9783
▁logic	-10.9789
he	-10.9793
rque	-10.9797
▁translat	-10.981
▁log	-10.9811
▁sounds	-10.9822
▁toll	-10.9826
ette	-10.9828
niels	-10.983
dominant	-10.9831
▁fisher	-10.9834
▁recurr	-10.9837
tina	-10.9839
idden	-10.9839
rtin	-10.9841
fusion	-10.9852
▁celebrate	-10.9873
▁sight	-10.9874
▁jer	-10.9889
minst	-10.9893
▁columb	-10.9907
▁hostil	-10.9909
▁cong	-10.9916
▁hole	-10.9922
went	-10.9926
▁raf	-10.9929
cyclic	-10.9929
▁neo	-10.9934
▁elephant	-10.994
▁membrane	-10.994
▁satellite	-10.994
▁smooth	-10.994
▁advertisement	-10.994
▁theatrical	-10.994
▁demolish	-10.994
▁freak	-10.9941
▁tension	-10.9944
▁interpretation	-10.9944
▁engagement	-10.9947
▁submitt	-10.9951
natural	-10.9952
ile	-10.996
▁berlin	-10.9962
io	-10.9964
yard	-10.9966
ade	-10.9966
▁gene	-10.998
▁pounder	-10.9981
az	-10.9986
idge	-10.9987
▁update	-10.9991
▁mint	-10.9992
▁understo	-10.9993
▁pic	-10.9994
▁wis	-10.9998
▁finance	-11.0009
ther	-11.001
▁diplomat	-11.0011
ori	-11.003
▁topp	-11.0031
▁blu	-11.0043
▁ge	-11.0048
▁lia	-11.005
kin	-11.0054
nglo	-11.0056
▁lyrical	-11.0056
plasm	-11.006
wiss	-11.0065
▁excit	-11.007
▁gam	-11.0081
▁marking	-11.0082
▁owners	-11.0082
▁rebuil	-11.0086
▁abuse	-11.009
▁charl	-11.0101
▁rivers	-11.0121
▁asteroid	-11.0126
cut	-11.0129
▁disrupt	-11.013
uda	-11.0133
▁export	-11.0134
▁administrative	-11.014
▁consequent	-11.014
▁eshmun	-11.014
▁evolution	-11.014
▁qualify	-11.014
▁vulcan	-11.014
▁disband	-11.014
▁anchor	-11.014
▁exploit	-11.014
▁cousin	-11.014
▁degro	-11.014
▁wake	-11.014
▁hawaii	-11.014
▁knee	-11.0141
▁compilation	-11.0142
▁deput	-11.0142
▁persist	-11.0142
▁lawyer	-11.0143
▁1870	-11.0148
▁uprising	-11.015
▁heli	-11.0159
▁kenne	-11.0163
▁ecolog	-11.0163
east	-11.0163
▁woodland	-11.0179
▁crosse	-11.0181
▁crystal	-11.0182
▁doll	-11.0187
▁painter	-11.0193
▁examin	-11.0193
▁stale	-11.0202
▁walker	-11.0207
bra	-11.021
▁chin	-11.0219
▁ban	-11.0222
▁eve	-11.0229
mann	-11.0244
▁dual	-11.0247
icia	-11.0249
▁shut	-11.025
oz	-11.0252
▁minorit	-11.0262
▁descend	-11.0271
▁updat	-11.0298
▁olive	-11.0302
awa	-11.0305
▁invest	-11.0307
▁territori	-11.0328
▁prohibit	-11.0334
▁euro	-11.0337
▁funn	-11.0338
▁tro	-11.0339
▁neighbor	-11.0344
▁culminat	-11.0344
▁intellectual	-11.0344
▁kilometer	-11.0344
▁obvious	-11.0344
▁strict	-11.0344
▁uniform	-11.0344
▁yield	-11.0344
▁symptom	-11.0344
▁rhy	-11.0345
▁abbe	-11.0345
▁closure	-11.0345
▁partnership	-11.0346
▁thrill	-11.0346
▁mrs	-11.0347
▁manual	-11.0348
▁urani	-11.0348
▁clint	-11.0348
▁steal	-11.0349
▁violation	-11.035
oot	-11.0353
▁complicat	-11.0353
▁mate	-11.0356
▁songwriter	-11.0357
▁gregor	-11.0357
gon	-11.0359
▁sad	-11.0359
nburg	-11.0361
aski	-11.0361
▁salt	-11.0365
▁isotope	-11.0369
▁chancel	-11.0378
▁demon	-11.0381
tube	-11.0394
soft	-11.04
music	-11.0405
father	-11.0405
omar	-11.0406
ica	-11.0409
kate	-11.0412
nnett	-11.0412
▁nh	-11.0414
▁sure	-11.0418
ograph	-11.0425
▁58	-11.0425
▁noble	-11.0426
▁operational	-11.0429
▁cor	-11.0435
idah	-11.0444
▁argentine	-11.0461
▁marshal	-11.0462
▁urg	-11.0465
▁khan	-11.0485
▁84	-11.0486
▁terra	-11.0486
▁123	-11.0488
▁nave	-11.0494
▁86	-11.0494
▁tackle	-11.0497
▁proportion	-11.0498
▁marg	-11.0499
▁bret	-11.0501
▁kong	-11.0502
▁163	-11.0508
▁91	-11.0508
▁barb	-11.0517
▁korea	-11.0519
▁platin	-11.0522
ue	-11.0526
▁hal	-11.054
▁78	-11.0544
can	-11.0551
nesse	-11.0551
spel	-11.0552
▁brilliant	-11.0552
▁competitor	-11.0552
▁lincoln	-11.0552
▁pagoda	-11.0552
▁singapore	-11.0552
▁parody	-11.0552
▁cluster	-11.0553
▁compliment	-11.0553
▁apply	-11.0553
▁punishment	-11.0554
▁trap	-11.0555
▁rotation	-11.0556
▁percentage	-11.0561
▁1830	-11.0562
▁execution	-11.0564
roy	-11.0568
▁strain	-11.0568
▁exhibition	-11.0569
▁chap	-11.057
orrai	-11.0581
▁adel	-11.0581
▁invad	-11.0583
▁archi	-11.0593
▁qualifi	-11.0593
▁brig	-11.0603
dine	-11.0605
▁loop	-11.061
rous	-11.0615
oke	-11.0625
▁marian	-11.063
rove	-11.0636
▁fitt	-11.0636
dor	-11.0645
ifi	-11.0649
▁wider	-11.0649
▁balance	-11.0674
▁mail	-11.0679
▁stella	-11.0681
▁corp	-11.0687
ko	-11.0699
cal	-11.0703
▁investigat	-11.0713
▁comprise	-11.0715
ore	-11.0725
▁favorabl	-11.0731
acea	-11.0731
▁ceme	-11.0741
ht	-11.0753
▁refuse	-11.0755
▁belgi	-11.0761
▁congregation	-11.0763
▁dimension	-11.0765
▁sanskrit	-11.0765
▁semifinal	-11.0765
▁devotion	-11.0765
▁deliberate	-11.0765
▁bronze	-11.0765
▁audition	-11.0765
▁crab	-11.0765
▁competitive	-11.0765
▁stump	-11.0766
▁matthew	-11.0766
▁advi	-11.0767
▁census	-11.0767
▁dump	-11.0767
▁illness	-11.0768
▁examination	-11.0768
▁gravit	-11.0769
▁jag	-11.0769
▁belgian	-11.077
▁innocen	-11.077
▁myster	-11.0771
ico	-11.0773
aide	-11.0774
▁milk	-11.0774
▁lifetime	-11.0776
donna	-11.0784
▁assess	-11.0786
▁allosaur	-11.0789
▁antoni	-11.0791
air	-11.0797
▁astronomer	-11.08
▁valid	-11.0806
▁sas	-11.0811
▁evolv	-11.0812
umn	-11.0814
sswell	-11.0818
▁glan	-11.0821
▁button	-11.0823
▁epic	-11.0823
▁ruth	-11.0825
▁09	-11.0826
▁synonym	-11.0828
bai	-11.0829
un	-11.0832
▁gle	-11.0842
▁extrat	-11.0856
ibis	-11.0861
▁jen	-11.0862
▁topic	-11.0863
bound	-11.0866
dream	-11.0869
▁provinc	-11.0871
broad	-11.0871
▁debt	-11.0872
▁marsh	-11.0872
lfa	-11.0877
▁beaut	-11.088
▁genera	-11.0891
▁participate	-11.0891
▁pursu	-11.0893
▁steps	-11.0895
▁chrono	-11.0898
▁gib	-11.0902
▁rad	-11.0922
▁beam	-11.0922
▁wonder	-11.0923
▁anne	-11.0939
▁prospect	-11.094
▁protester	-11.0942
nc	-11.0943
take	-11.0952
rose	-11.0965
▁clair	-11.0967
▁angle	-11.0973
▁condemn	-11.0979
▁impos	-11.0982
▁fossil	-11.0982
▁sovereign	-11.0982
▁evident	-11.0982
▁explosive	-11.0982
▁widow	-11.0982
▁nineteen	-11.0983
▁merchant	-11.0983
▁dudley	-11.0983
▁console	-11.0983
▁hampshire	-11.0983
▁stavan	-11.0983
▁taste	-11.0983
▁ghat	-11.0983
▁umpire	-11.0983
▁carpenter	-11.0983
howitz	-11.0984
▁dubb	-11.0984
▁lime	-11.0984
▁palestinian	-11.0985
▁hobb	-11.0985
▁calib	-11.0986
▁apartment	-11.0991
erry	-11.0993
manita	-11.0994
▁indoor	-11.0998
▁permitt	-11.1
▁collective	-11.1
▁pleas	-11.1003
▁nazi	-11.1003
hoon	-11.1005
▁enzyme	-11.1005
▁wishe	-11.1007
▁sack	-11.1008
▁pat	-11.1008
▁kim	-11.1013
▁grounds	-11.1014
▁ml	-11.1024
▁trans	-11.1024
brew	-11.1033
▁101	-11.1033
▁venture	-11.1038
▁03	-11.1039
▁decrease	-11.1042
▁slate	-11.1044
▁roberts	-11.1052
cash	-11.1059
ulu	-11.1064
sburg	-11.1069
▁realis	-11.1071
her	-11.1073
▁junction	-11.1079
bel	-11.1087
▁directors	-11.1088
▁fault	-11.1088
tant	-11.1093
▁resembl	-11.1093
▁rick	-11.1099
▁166	-11.1105
junction	-11.1107
▁float	-11.1109
▁reinforce	-11.1111
guard	-11.1114
street	-11.1117
▁xii	-11.1124
vera	-11.114
▁syd	-11.1142
▁cp	-11.1178
▁170	-11.1181
▁bombing	-11.1188
gular	-11.1188
▁harr	-11.1189
▁fl	-11.1191
▁alex	-11.1195
▁accommodate	-11.1205
▁dispatch	-11.1205
▁regain	-11.1205
▁sultan	-11.1205
▁suppress	-11.1205
▁zanzibar	-11.1205
▁indonesia	-11.1205
▁mitchell	-11.1205
▁tribble	-11.1205
▁neighborhood	-11.1205
▁hungarian	-11.1206
▁garner	-11.1206
▁predominant	-11.1206
▁disturbance	-11.1206
▁reactor	-11.1207
▁kirk	-11.1208
room	-11.1208
wf	-11.1208
▁cooper	-11.1213
▁clan	-11.1213
▁hearing	-11.1213
witzer	-11.1218
▁densit	-11.122
▁restriction	-11.122
▁timber	-11.1221
▁ignor	-11.1226
▁smoke	-11.1236
▁dirt	-11.1237
▁nice	-11.1239
ah	-11.1241
▁copy	-11.1242
▁sora	-11.1245
▁enabl	-11.1245
▁successive	-11.125
▁pfa	-11.126
▁ar	-11.1264
▁wyo	-11.1265
▁hook	-11.1269
▁02	-11.1269
▁mature	-11.1293
▁skeleton	-11.1294
usher	-11.1295
▁patient	-11.1295
arv	-11.1298
rnest	-11.1306
▁starter	-11.1306
▁canning	-11.1328
▁legislat	-11.1329
▁ingre	-11.133
▁prepar	-11.1333
▁usd	-11.1336
▁francis	-11.1338
▁conclude	-11.1344
▁dust	-11.1345
▁barr	-11.1346
ric	-11.1353
▁horro	-11.1357
▁mel	-11.136
▁helm	-11.1361
▁nad	-11.1373
▁suitabl	-11.1381
▁nichol	-11.1385
wich	-11.1385
hip	-11.1386
▁bare	-11.1389
▁bowler	-11.139
▁sis	-11.1392
▁similarit	-11.1392
▁mars	-11.1396
▁significan	-11.1406
▁noise	-11.1408
▁therap	-11.1409
▁hoove	-11.1409
▁ordering	-11.142
ber	-11.1423
tonin	-11.1423
▁geograph	-11.1423
▁laugh	-11.1426
▁carlo	-11.1429
▁immigrat	-11.1432
▁gardner	-11.1432
▁immortal	-11.1432
▁pyramid	-11.1432
▁occupy	-11.1432
▁aerodrome	-11.1432
▁altarpiece	-11.1432
▁legislature	-11.1432
▁vault	-11.1432
▁swamp	-11.1433
▁naza	-11.1434
blazer	-11.1434
▁rebellion	-11.1438
▁dahl	-11.144
ming	-11.1441
of	-11.1443
garet	-11.1447
▁sq	-11.1449
▁combine	-11.145
▁wheel	-11.145
▁devastat	-11.1453
▁155	-11.1456
▁clothes	-11.1458
▁cutt	-11.1462
ker	-11.1462
▁stress	-11.1463
▁excellen	-11.1464
▁opin	-11.1468
▁antiquit	-11.1471
sha	-11.1472
▁nova	-11.1476
▁oxy	-11.149
▁experimental	-11.149
temporari	-11.1498
▁helen	-11.15
▁bore	-11.1501
▁assume	-11.1502
▁interact	-11.151
▁je	-11.151
▁strange	-11.1512
▁halo	-11.1521
sio	-11.1532
▁ta	-11.1534
▁sb	-11.1537
▁collaps	-11.1538
▁upgrad	-11.1547
▁suggestion	-11.1547
rey	-11.1549
▁bah	-11.155
▁enforce	-11.1551
▁render	-11.1553
▁propose	-11.1569
gott	-11.1573
▁bra	-11.1583
▁undertake	-11.1592
drum	-11.1597
och	-11.1612
▁hawk	-11.1615
▁reporter	-11.1632
▁europa	-11.1638
sberg	-11.1642
▁finger	-11.1644
layer	-11.1646
▁carmel	-11.165
avage	-11.1658
▁displace	-11.1661
▁confront	-11.1662
▁corbet	-11.1665
▁juvenile	-11.1665
▁mirror	-11.1665
▁staple	-11.1665
▁commentator	-11.1665
▁retaliat	-11.1665
▁sympath	-11.1665
▁palmyrene	-11.1665
▁enlist	-11.1665
▁mask	-11.1665
▁cadet	-11.1666
▁puma	-11.1666
▁dislike	-11.1667
uous	-11.1667
▁announcement	-11.1669
▁interception	-11.167
▁fred	-11.1671
▁lumber	-11.1676
esi	-11.1677
▁demonstration	-11.1679
▁saving	-11.1679
▁ferry	-11.1684
▁earnest	-11.1685
bow	-11.1687
▁roadway	-11.1691
▁austrian	-11.1692
▁sailor	-11.1697
▁bread	-11.1698
saw	-11.1701
▁companion	-11.1707
▁mineral	-11.1712
▁trio	-11.1717
eus	-11.1717
▁integrat	-11.1717
▁fil	-11.1719
ru	-11.1722
▁survival	-11.1726
▁failing	-11.1728
tico	-11.1741
▁manor	-11.1743
ada	-11.1743
om	-11.1752
▁pla	-11.1756
▁welcome	-11.1759
▁genes	-11.1764
▁pain	-11.1777
▁pet	-11.178
amil	-11.1782
▁fatalit	-11.1805
ret	-11.1809
wan	-11.182
ongo	-11.1832
▁craft	-11.1832
▁tooth	-11.1832
▁angr	-11.1835
▁nu	-11.1836
itting	-11.1836
▁92	-11.1842
▁jerem	-11.188
▁hans	-11.1881
▁jose	-11.1883
half	-11.1887
▁animat	-11.1889
▁hawai	-11.1895
▁fundamental	-11.1902
▁bulgaria	-11.1903
▁detach	-11.1903
▁militia	-11.1903
▁participant	-11.1903
▁reopen	-11.1903
▁parrot	-11.1903
▁liquid	-11.1903
reutz	-11.1903
▁ensemble	-11.1903
▁tokyo	-11.1903
▁presbyterian	-11.1903
▁panzer	-11.1903
▁alternate	-11.1903
▁landmark	-11.1903
▁distant	-11.1904
▁dependent	-11.1904
▁eccleston	-11.1904
▁climb	-11.1904
▁sketch	-11.1905
▁creature	-11.1907
▁certification	-11.1907
▁metro	-11.1908
▁instruction	-11.1912
▁1840	-11.1912
▁chen	-11.1913
rinth	-11.1914
▁react	-11.1914
▁rook	-11.1917
▁wiki	-11.1921
▁raja	-11.1923
▁vega	-11.1924
▁gael	-11.1928
ax	-11.193
▁em	-11.1933
▁chord	-11.1935
▁complaint	-11.1939
▁dri	-11.1939
inner	-11.1944
▁danc	-11.1946
▁pu	-11.1949
uart	-11.1956
▁ganga	-11.196
▁neutral	-11.1967
▁electrical	-11.1973
lake	-11.1973
▁sm	-11.1973
▁graduate	-11.1975
uz	-11.1992
feld	-11.1995
stol	-11.1995
▁chu	-11.2005
▁bomber	-11.201
aka	-11.2058
▁pier	-11.2062
lloy	-11.2068
▁gathering	-11.2069
▁bang	-11.2071
caus	-11.2078
xe	-11.2085
▁dy	-11.2094
ification	-11.21
ange	-11.2104
▁dec	-11.2105
▁astronom	-11.2106
▁allocat	-11.2108
▁imp	-11.2109
ara	-11.2122
▁admir	-11.2126
▁belonging	-11.2127
▁cyr	-11.2131
▁mum	-11.2133
vel	-11.2135
▁reviv	-11.2137
▁norw	-11.2142
▁commerc	-11.2146
▁precipitat	-11.2147
▁acoustic	-11.2147
▁anticipat	-11.2147
▁celebrit	-11.2147
▁demographic	-11.2147
▁neutrino	-11.2147
▁obstacle	-11.2147
▁pakistan	-11.2147
▁retrieve	-11.2147
▁rothschild	-11.2147
▁veteran	-11.2147
▁stingray	-11.2147
▁barrack	-11.2147
▁consent	-11.2147
▁landscape	-11.2147
▁retail	-11.2147
▁mortar	-11.2148
▁gender	-11.2148
▁remind	-11.2148
rizon	-11.2148
▁overlook	-11.2149
▁commitment	-11.2149
chute	-11.2149
▁harbo	-11.215
▁variable	-11.2152
▁interven	-11.2156
▁romania	-11.2156
▁kyra	-11.2158
course	-11.2159
▁declaration	-11.216
▁decoration	-11.2161
▁grain	-11.2161
▁rubber	-11.2161
▁tur	-11.2166
▁ambition	-11.2168
▁ron	-11.2168
▁airfield	-11.2176
▁scorer	-11.2176
▁cars	-11.2178
▁peer	-11.2188
▁berk	-11.2189
khur	-11.2193
▁duet	-11.2194
▁pes	-11.2196
▁pursui	-11.2197
▁cambodian	-11.2201
▁heir	-11.2203
▁robin	-11.2211
▁listener	-11.2221
active	-11.2224
▁165	-11.2226
hren	-11.2228
▁mauri	-11.223
let	-11.2231
▁commun	-11.2232
▁berg	-11.2234
lesh	-11.2238
▁chan	-11.224
▁shipment	-11.2241
hang	-11.2245
go	-11.2246
▁laud	-11.2248
▁las	-11.2256
▁cameo	-11.2257
▁ward	-11.2261
▁carrier	-11.2264
▁sull	-11.2271
▁relate	-11.2274
▁unna	-11.2275
▁168	-11.2277
oval	-11.2283
▁dub	-11.2287
▁brun	-11.2291
▁pc	-11.2295
▁maya	-11.2305
▁dar	-11.2311
gud	-11.2312
▁grammar	-11.2313
▁handle	-11.2321
cw	-11.2322
ioc	-11.2326
▁decreas	-11.2329
urn	-11.2331
▁tag	-11.2335
▁spaces	-11.2337
▁mytholog	-11.2346
▁230	-11.2348
▁jewel	-11.2365
▁salm	-11.2369
ord	-11.2372
erz	-11.2375
▁105	-11.2377
▁liner	-11.2378
▁scrap	-11.2389
▁neighbour	-11.2396
▁administer	-11.2397
▁explicit	-11.2397
▁immigrant	-11.2397
▁inflict	-11.2397
▁irregular	-11.2397
▁homosexual	-11.2397
▁brenda	-11.2397
▁mutual	-11.2397
▁guinea	-11.2397
▁chemist	-11.2397
▁descendant	-11.2397
▁guild	-11.2397
▁libert	-11.2397
▁keyboard	-11.2398
▁bombardment	-11.2398
hire	-11.2399
▁cancel	-11.2401
▁feud	-11.2401
▁probe	-11.2402
▁vocalist	-11.2402
▁bernard	-11.2403
▁hamper	-11.2405
▁fried	-11.2409
▁illustration	-11.2412
▁reverse	-11.2419
▁pose	-11.242
▁prim	-11.2425
▁flame	-11.2429
lash	-11.2431
▁molecul	-11.2431
▁donation	-11.2436
fort	-11.2436
book	-11.2441
▁parasite	-11.2441
▁inherit	-11.2442
▁investigate	-11.2442
itive	-11.2442
▁dealing	-11.2442
▁trin	-11.2443
▁concentrat	-11.2447
▁gro	-11.2448
▁quot	-11.2455
▁va	-11.2459
▁copi	-11.2461
season	-11.2464
▁explorer	-11.2471
▁tune	-11.2492
wang	-11.2501
hio	-11.2502
▁acknowledg	-11.2515
▁lesson	-11.2527
ci	-11.253
▁lin	-11.2539
▁lanes	-11.2541
eaten	-11.2549
▁ann	-11.2556
▁skinne	-11.257
▁dick	-11.2572
ikk	-11.2574
▁83	-11.2587
▁coat	-11.2589
▁hid	-11.2595
hre	-11.26
hua	-11.2604
roller	-11.2615
▁revers	-11.2621
pi	-11.2624
▁dies	-11.2634
▁mg	-11.2637
▁instruct	-11.2641
▁micro	-11.2642
olith	-11.2644
▁repli	-11.2644
▁rhode	-11.2651
▁conventional	-11.2651
▁mathematic	-11.2651
▁langu	-11.2652
bracelet	-11.2653
▁alphabet	-11.2653
▁discipline	-11.2653
▁explosion	-11.2653
▁frequenc	-11.2653
▁neutron	-11.2653
▁abbot	-11.2653
▁quiet	-11.2653
▁variant	-11.2653
▁ecu	-11.2654
▁kickoff	-11.2654
bourne	-11.2654
▁mock	-11.2655
▁borrow	-11.2656
▁fulfill	-11.2657
▁fragil	-11.266
▁luck	-11.2661
▁speculation	-11.2662
▁guitarist	-11.2662
▁brain	-11.2662
▁electron	-11.2667
▁collector	-11.2667
▁eastward	-11.2667
nation	-11.2672
▁reward	-11.2672
▁enable	-11.2674
▁240	-11.2676
▁mil	-11.2678
▁nca	-11.2681
▁shoe	-11.2681
▁sh	-11.2684
▁wire	-11.2687
▁chop	-11.2693
▁whit	-11.2694
▁mason	-11.2703
▁donald	-11.2712
▁compare	-11.2715
▁faction	-11.2718
▁sensitiv	-11.2725
▁fuse	-11.273
cel	-11.2732
place	-11.2734
zu	-11.2746
mon	-11.2761
▁varie	-11.2765
ndhe	-11.2771
▁ya	-11.2772
▁rein	-11.2773
▁permissi	-11.2776
▁advis	-11.2781
▁teach	-11.2782
▁relocat	-11.2783
ders	-11.2787
▁121	-11.2789
▁supervis	-11.2793
nyi	-11.2796
▁habit	-11.2797
▁spott	-11.2799
▁manuel	-11.2808
nster	-11.2812
▁hay	-11.2812
▁approache	-11.2816
▁solv	-11.2817
drid	-11.2823
ibi	-11.2836
▁inaugura	-11.2836
nan	-11.2842
▁ace	-11.2847
venge	-11.2855
▁wu	-11.2857
▁cance	-11.286
▁speculat	-11.2864
▁ratio	-11.2865
▁mall	-11.2867
▁keys	-11.2877
▁elevat	-11.2878
▁cur	-11.2889
egian	-11.2889
kh	-11.2895
▁steep	-11.29
▁contribute	-11.2901
▁terr	-11.2902
▁cleve	-11.2909
▁idol	-11.2915
▁denomination	-11.2916
▁redesign	-11.2916
▁trigger	-11.2916
▁coalition	-11.2916
▁telescope	-11.2916
▁ancestor	-11.2916
▁turbine	-11.2916
▁gorilla	-11.2916
▁conquest	-11.2916
▁spark	-11.2917
▁reagent	-11.2917
▁pump	-11.2917
pelag	-11.2917
▁definite	-11.2917
▁perception	-11.2918
▁reprint	-11.2918
▁sibling	-11.2918
▁exile	-11.2918
▁genuine	-11.2918
▁hollow	-11.2919
▁trough	-11.2919
▁vital	-11.292
▁ceratopsian	-11.2925
moul	-11.2925
▁friendship	-11.2926
▁brutal	-11.2926
▁leak	-11.2927
▁stain	-11.2932
▁moist	-11.2935
▁tear	-11.2939
▁consult	-11.294
▁striker	-11.294
▁mansion	-11.2942
▁repeat	-11.2949
▁stern	-11.2953
friend	-11.2953
hara	-11.2954
▁annal	-11.2954
▁quantit	-11.2959
▁expense	-11.2961
▁settle	-11.2981
▁mari	-11.2983
▁lowland	-11.2984
▁thank	-11.2987
▁kenn	-11.2989
▁icon	-11.2992
sock	-11.3004
▁collaborat	-11.3012
ii	-11.3016
sund	-11.3031
oon	-11.3048
▁lis	-11.3064
esco	-11.3089
poli	-11.3096
▁advocate	-11.3096
ay	-11.3102
▁shim	-11.3109
▁davie	-11.3113
▁cable	-11.3119
▁bibl	-11.3119
▁114	-11.3138
nl	-11.3147
▁dre	-11.3154
▁centimet	-11.3162
▁rom	-11.3163
liance	-11.3165
▁admit	-11.3166
▁serial	-11.3171
▁cuba	-11.3172
▁mart	-11.3174
▁nasa	-11.3182
▁bulk	-11.3186
▁coincide	-11.3186
▁enormous	-11.3186
▁motif	-11.3186
▁reperto	-11.3186
▁conscious	-11.3186
▁naked	-11.3187
▁shallow	-11.3187
▁mechanism	-11.3187
▁decommission	-11.3187
▁claw	-11.3188
▁transcription	-11.3188
▁hygro	-11.319
▁stoke	-11.3191
▁div	-11.3192
▁montre	-11.3192
▁owl	-11.3194
▁summ	-11.32
▁performer	-11.3203
▁prayer	-11.3203
▁convey	-11.3217
nnie	-11.3222
▁alger	-11.3226
mpson	-11.3229
▁tong	-11.3237
sp	-11.3237
erto	-11.3247
▁cob	-11.325
atic	-11.3252
▁disturb	-11.3261
▁riot	-11.3264
▁spawn	-11.3266
▁lucas	-11.327
sphere	-11.3271
sumption	-11.3274
▁tempo	-11.3277
▁meta	-11.3277
▁lud	-11.3283
▁trunk	-11.3288
▁sto	-11.329
▁ensur	-11.3291
▁boo	-11.3291
▁practical	-11.3293
▁reag	-11.3294
▁reinforc	-11.3297
▁vin	-11.3299
▁bidd	-11.33
▁sec	-11.3304
oxide	-11.3306
▁beak	-11.3312
▁graves	-11.3314
▁flaw	-11.3315
box	-11.332
▁gay	-11.3323
▁stole	-11.3332
▁glen	-11.3338
▁hardco	-11.3345
▁qi	-11.3351
▁ordinar	-11.3351
oc	-11.3352
▁literal	-11.3353
▁gree	-11.3393
▁ports	-11.3397
▁quote	-11.3399
▁shin	-11.3399
▁tonne	-11.3402
▁jacob	-11.341
mation	-11.3423
▁mistake	-11.343
▁define	-11.3435
▁easter	-11.3439
▁angelo	-11.344
▁josh	-11.3444
aga	-11.3444
▁sag	-11.3449
▁si	-11.3463
▁disagree	-11.3464
▁brack	-11.3464
▁autobiograph	-11.3464
▁coffee	-11.3464
▁complement	-11.3464
▁etymolog	-11.3464
▁exterior	-11.3464
▁patriarch	-11.3464
▁vulnerab	-11.3464
▁prototype	-11.3464
▁drift	-11.3464
▁millimeter	-11.3464
▁horizon	-11.3464
▁favourite	-11.3465
▁ancestr	-11.3465
▁font	-11.3466
▁blend	-11.3467
▁taw	-11.3467
▁navigation	-11.3467
▁mosque	-11.3468
▁migration	-11.3471
▁relay	-11.3472
▁che	-11.3475
▁flock	-11.3478
▁insert	-11.3479
▁glider	-11.3479
▁sacrifice	-11.348
▁dodo	-11.3481
▁eliminate	-11.3481
holm	-11.3483
▁scrapp	-11.3484
▁municipalit	-11.3487
▁1800	-11.349
▁odd	-11.3494
nia	-11.3502
marie	-11.3509
▁attraction	-11.3512
▁witnesse	-11.3514
▁platt	-11.3515
▁customer	-11.352
alph	-11.3528
▁activist	-11.353
▁brave	-11.3531
aw	-11.3532
wald	-11.3538
▁174	-11.3538
▁intelligent	-11.3544
▁tactical	-11.3547
bil	-11.3547
▁sat	-11.3549
▁dams	-11.3552
▁lumino	-11.3554
▁compromise	-11.3558
▁payment	-11.3566
▁exclud	-11.3572
▁batt	-11.3572
duct	-11.358
irming	-11.3588
▁rape	-11.36
mes	-11.3605
▁summar	-11.3607
▁glas	-11.361
cko	-11.3611
▁plen	-11.3616
eki	-11.3623
unch	-11.3624
ose	-11.3625
▁infect	-11.3627
hk	-11.3627
zer	-11.3628
▁musc	-11.3629
▁telegra	-11.3632
▁overwhelm	-11.3636
▁swing	-11.3641
▁nl	-11.3652
rice	-11.3655
▁cliff	-11.3656
vil	-11.3656
▁ph	-11.3657
▁consolidat	-11.3658
▁demonstrate	-11.3662
saku	-11.3662
gar	-11.3667
▁nev	-11.3667
▁hide	-11.3668
po	-11.367
▁sheet	-11.367
lov	-11.3672
▁examine	-11.3673
aulk	-11.3685
▁lakes	-11.3687
▁delegate	-11.3689
▁culle	-11.3695
▁dw	-11.3697
gna	-11.3701
nie	-11.3705
red	-11.3705
▁outfit	-11.3706
▁leaf	-11.3707
▁vertic	-11.3709
▁austria	-11.3716
▁pig	-11.3718
ntine	-11.3722
bon	-11.3727
▁sum	-11.3727
▁coaster	-11.374
▁amaz	-11.3743
ustro	-11.3745
▁excess	-11.3745
▁commemorat	-11.3747
▁joan	-11.3748
▁syria	-11.3749
▁hp	-11.375
▁qedar	-11.375
▁desperate	-11.375
▁deteriorat	-11.375
▁mvp	-11.375
▁sanctuar	-11.375
▁telephone	-11.375
▁clergy	-11.375
▁signature	-11.375
▁surpass	-11.375
▁bloom	-11.375
▁ronald	-11.375
▁mysterious	-11.375
▁plague	-11.375
▁conquer	-11.3751
▁civilization	-11.3751
▁toxic	-11.3751
▁fixture	-11.3752
▁fortification	-11.3752
▁bullet	-11.3753
▁alarm	-11.3754
▁invitation	-11.3758
▁incomplete	-11.3763
▁bonus	-11.3766
▁rafa	-11.377
▁gag	-11.3774
▁guin	-11.3779
scrib	-11.3784
oven	-11.3792
▁villain	-11.3795
▁farming	-11.3796
▁darwi	-11.3797
affle	-11.3797
cester	-11.3809
▁warship	-11.3811
▁constitute	-11.3815
▁fled	-11.3815
roll	-11.3816
meter	-11.3817
▁harmon	-11.3819
▁salar	-11.3819
▁portrayal	-11.382
gome	-11.3822
80	-11.3823
▁echo	-11.3825
▁bhairava	-11.383
▁hyde	-11.383
atop	-11.3842
▁plat	-11.3846
▁probab	-11.3853
▁evaluat	-11.3861
▁spy	-11.3865
▁buff	-11.387
ole	-11.3895
▁dispers	-11.3898
dir	-11.3901
▁partners	-11.3901
▁commenc	-11.3905
minis	-11.3905
art	-11.3913
▁hitt	-11.392
▁commentar	-11.3922
▁galli	-11.3931
bbar	-11.3944
▁brigad	-11.3945
▁rebuild	-11.3945
nance	-11.3949
bu	-11.3951
▁mines	-11.3952
rate	-11.3952
▁pm	-11.3965
▁rect	-11.3966
▁117	-11.3966
fire	-11.3975
andra	-11.3979
04	-11.3981
ravan	-11.3985
edoc	-11.3988
spot	-11.3988
▁realistic	-11.3998
ille	-11.4008
▁106	-11.401
▁nurser	-11.4013
harp	-11.4014
▁ni	-11.4019
mart	-11.402
erald	-11.4021
▁flee	-11.4023
▁scar	-11.4026
▁sic	-11.4026
▁declare	-11.4034
▁robot	-11.4039
▁disorder	-11.4044
▁enlarge	-11.4044
▁guarantee	-11.4044
▁megalith	-11.4044
▁prevail	-11.4044
▁symphon	-11.4044
▁veloc	-11.4044
▁rendition	-11.4044
▁scenario	-11.4044
▁covenant	-11.4044
▁triumph	-11.4044
▁trait	-11.4045
▁brood	-11.4045
▁turnpike	-11.4045
▁stanza	-11.4045
▁drill	-11.4046
▁judo	-11.4047
▁montag	-11.4047
▁atomic	-11.405
▁silent	-11.4052
▁andrea	-11.4052
▁curv	-11.4053
▁spike	-11.4054
▁summon	-11.4054
▁crescen	-11.4054
▁leban	-11.4055
moto	-11.4057
▁precise	-11.4058
▁careful	-11.4058
curti	-11.4063
▁larr	-11.4064
gi	-11.4074
▁ukrain	-11.4075
base	-11.4076
▁gri	-11.4077
mund	-11.4082
▁induct	-11.4083
▁stepp	-11.4083
creta	-11.4087
▁reflection	-11.4088
▁accidental	-11.409
fell	-11.4092
sco	-11.4095
▁handed	-11.4098
budo	-11.4099
▁bree	-11.4099
ghan	-11.4102
hals	-11.4107
▁illustrate	-11.4115
▁rent	-11.4117
▁ascend	-11.4121
▁mild	-11.4123
▁sl	-11.4123
erb	-11.4126
▁dropping	-11.4127
ark	-11.413
ki	-11.4132
▁kath	-11.4133
▁atom	-11.4138
▁advocat	-11.4147
win	-11.4155
▁synthesi	-11.416
▁pest	-11.4167
▁waste	-11.4191
jan	-11.4195
▁jimm	-11.4195
▁tombs	-11.4198
▁rar	-11.4204
▁truck	-11.4209
▁bor	-11.4214
att	-11.4215
▁colonis	-11.4217
nichol	-11.4228
▁photo	-11.423
▁axi	-11.4238
tors	-11.4241
rad	-11.4244
brush	-11.4245
tress	-11.4246
▁licens	-11.4246
logy	-11.4247
do	-11.4253
▁familiar	-11.4261
▁125	-11.4261
hra	-11.4262
scope	-11.4266
▁muc	-11.4273
▁averag	-11.4274
▁pad	-11.4276
pack	-11.4278
donald	-11.4282
bris	-11.4285
▁arabia	-11.4289
space	-11.4291
star	-11.4292
▁viol	-11.4292
▁consum	-11.4297
chel	-11.4299
▁remarkabl	-11.4301
▁treasure	-11.4305
lik	-11.4309
▁proceeding	-11.4313
▁confiden	-11.4321
▁reput	-11.4327
nall	-11.4327
▁chronic	-11.4328
phy	-11.4336
▁candida	-11.4344
▁censor	-11.4347
▁copper	-11.4347
▁corridor	-11.4347
▁flotilla	-11.4347
▁gabriel	-11.4347
▁memoir	-11.4347
▁neglect	-11.4347
▁uyghur	-11.4347
▁napoleon	-11.4347
▁cruci	-11.4347
▁conceive	-11.4347
▁nephew	-11.4347
▁counterpart	-11.4347
ption	-11.4348
▁domain	-11.4348
▁philippine	-11.4348
▁malaysia	-11.4348
▁hint	-11.4349
▁agaric	-11.435
▁calculat	-11.435
▁screenplay	-11.435
▁panther	-11.435
▁rejoin	-11.435
▁enroll	-11.4351
▁quest	-11.4353
▁petition	-11.4353
▁drummer	-11.4355
▁nea	-11.4355
▁outlet	-11.4356
▁deployment	-11.4358
▁psycholog	-11.4358
▁sick	-11.4359
▁sur	-11.4359
▁colombia	-11.4361
▁hymn	-11.4361
▁strikeout	-11.4361
▁populat	-11.4367
▁hatch	-11.4367
▁ke	-11.4368
▁kw	-11.4368
▁assyrian	-11.4369
consi	-11.437
▁gran	-11.4371
▁hurt	-11.4371
▁harvest	-11.438
▁rocket	-11.4385
▁julian	-11.4393
▁afford	-11.4404
▁pete	-11.4405
▁romance	-11.4411
▁01	-11.4418
▁rubb	-11.4429
erland	-11.443
▁nus	-11.4434
claren	-11.4448
▁bias	-11.4469
▁aisle	-11.4478
weight	-11.448
▁opt	-11.4484
laine	-11.4485
▁vista	-11.4489
▁adequate	-11.4498
▁indu	-11.4502
▁diocese	-11.4514
▁circula	-11.4514
▁ful	-11.4514
▁susan	-11.4523
▁subsidi	-11.4526
▁matur	-11.4551
nown	-11.4558
▁pp	-11.456
▁shel	-11.4561
▁wet	-11.4567
▁kiss	-11.4568
▁nationalist	-11.4576
▁comprehensi	-11.4578
pg	-11.458
lix	-11.4587
▁bypass	-11.4587
▁oxide	-11.4592
▁baptist	-11.4597
▁crow	-11.4611
▁specializ	-11.4615
▁moro	-11.4641
▁resist	-11.4654
▁stabili	-11.4655
▁compil	-11.4659
▁guerrilla	-11.466
▁scratch	-11.466
▁butterfl	-11.466
▁ceiling	-11.466
▁disguise	-11.466
▁licence	-11.466
▁judicia	-11.466
▁foster	-11.466
▁169	-11.466
▁particle	-11.466
▁unrest	-11.466
▁burrow	-11.466
▁arcade	-11.466
▁casemate	-11.466
fles	-11.4661
▁racial	-11.4661
▁amendment	-11.4661
▁prestig	-11.4662
▁senat	-11.4662
▁foul	-11.4663
▁sid	-11.4663
▁stamp	-11.4664
tact	-11.4665
▁transmitt	-11.4665
▁characteris	-11.4666
▁monaster	-11.4667
▁sidon	-11.4669
bride	-11.467
▁boiler	-11.4671
▁737	-11.4672
▁conviction	-11.4676
▁outcome	-11.4679
▁operator	-11.4683
▁backward	-11.4684
▁muscle	-11.4686
▁taxi	-11.4693
like	-11.4698
hesh	-11.4704
191	-11.4716
▁shortage	-11.4724
▁activat	-11.4727
▁alde	-11.4728
▁acquire	-11.473
▁chest	-11.4741
▁sch	-11.4743
▁terribl	-11.4745
▁interrupt	-11.4748
▁aval	-11.4755
▁ramp	-11.4756
▁madr	-11.4762
▁127	-11.4763
▁christians	-11.477
ek	-11.4773
iness	-11.4784
▁moor	-11.4784
▁overwhelming	-11.4786
▁modes	-11.4794
jib	-11.4797
▁harm	-11.4808
▁paran	-11.4812
▁bach	-11.4817
join	-11.482
▁fringe	-11.482
bile	-11.4824
tzo	-11.4829
lastic	-11.4844
elle	-11.4846
▁lamp	-11.4846
▁cock	-11.4852
▁stag	-11.4857
▁trader	-11.4865
▁merri	-11.4866
ois	-11.4868
▁highland	-11.4874
▁enhance	-11.4874
justin	-11.4883
▁camel	-11.4885
▁reliev	-11.4887
▁electro	-11.4889
▁resolve	-11.489
▁sham	-11.4896
erine	-11.4896
ensi	-11.4897
▁contra	-11.4899
▁trench	-11.4917
▁relevan	-11.4926
▁functional	-11.4932
▁fe	-11.494
▁stew	-11.4941
erman	-11.4942
nmark	-11.4958
▁oral	-11.4961
leans	-11.4963
ze	-11.4967
jo	-11.4968
▁ago	-11.4968
▁crusade	-11.4973
▁clima	-11.4979
▁descen	-11.4981
▁phylogen	-11.4982
▁ambush	-11.4982
▁disciple	-11.4982
▁kitchen	-11.4982
▁remake	-11.4982
▁virtue	-11.4982
▁vishnu	-11.4982
▁envelope	-11.4982
▁necessit	-11.4982
▁collision	-11.4982
▁lorenz	-11.4982
▁clip	-11.4982
▁saxon	-11.4982
▁sweep	-11.4982
▁abnormal	-11.4982
▁sediment	-11.4982
▁ornament	-11.4982
▁stela	-11.4983
▁blind	-11.4983
▁klein	-11.4983
llosa	-11.4983
▁digg	-11.4983
▁newfound	-11.4984
▁random	-11.4985
▁rumor	-11.4985
▁arise	-11.4985
▁judi	-11.4986
▁golf	-11.4986
▁buddhist	-11.4987
▁assessment	-11.4988
▁poetic	-11.4989
▁weakness	-11.499
▁buen	-11.4991
▁aggregate	-11.4994
▁powder	-11.4995
▁incursion	-11.4996
▁liz	-11.4997
▁comet	-11.4997
▁unexpected	-11.5
pani	-11.5001
▁missile	-11.5012
▁bunker	-11.5012
▁jeremi	-11.5013
▁vari	-11.5015
▁sina	-11.5015
▁waterway	-11.5018
liberation	-11.5025
▁hate	-11.5026
▁chees	-11.5028
ttles	-11.5032
iuc	-11.5036
bi	-11.5037
▁indirect	-11.505
▁veer	-11.5054
lando	-11.5055
ken	-11.5065
rez	-11.5067
▁lar	-11.507
▁ironic	-11.5071
▁gr	-11.5073
▁wreck	-11.5073
ith	-11.5077
▁sri	-11.509
ury	-11.5096
▁assur	-11.51
▁glor	-11.5102
▁dev	-11.5107
ex	-11.511
player	-11.5112
▁tier	-11.5119
▁solve	-11.5127
long	-11.5129
▁naut	-11.513
▁binar	-11.5139
▁troop	-11.5142
▁limb	-11.5144
▁peters	-11.5145
▁imaginati	-11.5146
né	-11.5147
▁cannon	-11.5157
▁acknowledge	-11.516
▁deny	-11.516
▁118	-11.5161
ept	-11.5162
▁captiv	-11.5163
▁shrub	-11.5166
▁rocke	-11.5169
▁fatal	-11.5174
▁phenomen	-11.5192
ilk	-11.5193
mission	-11.5197
▁identi	-11.5197
▁exceed	-11.5201
▁zo	-11.5208
▁concentrate	-11.5243
▁cab	-11.5244
▁twi	-11.5256
▁remo	-11.5259
full	-11.5263
▁fat	-11.5283
bot	-11.5285
▁prefer	-11.5304
▁slip	-11.5304
▁northumb	-11.5304
▁innovat	-11.5306
▁mantell	-11.5308
▁meri	-11.5308
▁amylostere	-11.5315
▁affiliate	-11.5315
▁antagonist	-11.5315
▁boulevard	-11.5315
▁critique	-11.5315
▁solitaire	-11.5315
▁swift	-11.5315
▁facult	-11.5315
▁intensify	-11.5315
▁lifestyle	-11.5315
▁resort	-11.5315
▁counterattack	-11.5315
▁relax	-11.5315
▁abolish	-11.5315
▁endanger	-11.5315
▁proclaim	-11.5315
▁symmetr	-11.5316
▁intimate	-11.5316
▁logistic	-11.5316
▁conifer	-11.5316
shmi	-11.5316
▁presum	-11.5317
▁sp	-11.5317
appen	-11.5319
▁hypothesi	-11.532
▁arika	-11.532
▁commod	-11.5322
▁osten	-11.5322
▁thorough	-11.5323
▁accusation	-11.5324
▁premise	-11.5324
▁karl	-11.5325
▁drought	-11.5325
▁barrel	-11.5326
▁terrace	-11.5327
▁recommendation	-11.5328
▁detective	-11.5329
▁emerge	-11.533
▁thread	-11.533
elite	-11.5337
face	-11.5337
▁specialist	-11.5338
▁antholog	-11.5347
▁limitation	-11.535
▁moth	-11.5352
▁gunner	-11.5352
clair	-11.5352
▁folklor	-11.5358
▁lit	-11.5359
▁devil	-11.5363
burg	-11.5364
▁xi	-11.5369
▁salva	-11.5373
some	-11.5375
▁vs	-11.5378
game	-11.5383
▁bod	-11.5388
ines	-11.539
▁terminal	-11.5397
fast	-11.5398
▁radiati	-11.5401
▁merge	-11.5405
▁dragon	-11.541
selm	-11.5429
part	-11.5431
▁tent	-11.5454
▁poly	-11.5456
rico	-11.5457
▁jenn	-11.5461
owing	-11.548
ellis	-11.5487
emble	-11.5491
gate	-11.5491
▁roost	-11.5493
▁corpse	-11.5495
oid	-11.5498
▁blockade	-11.5501
pas	-11.5501
▁dia	-11.5502
ried	-11.5504
▁154	-11.5507
▁angles	-11.5509
▁fitting	-11.5516
put	-11.5518
▁harsh	-11.5519
▁efficient	-11.5537
▁divide	-11.5539
▁pove	-11.5539
▁chao	-11.5539
▁pulp	-11.5547
▁fann	-11.555
▁southwester	-11.5555
▁cho	-11.5557
tical	-11.5558
▁ech	-11.556
▁readi	-11.5573
sboro	-11.558
▁northwester	-11.5582
arrow	-11.5587
▁barne	-11.5589
die	-11.5592
live	-11.5594
▁av	-11.5594
▁flora	-11.5596
▁toleran	-11.5598
pf	-11.5603
▁arrow	-11.5607
chan	-11.5618
▁fer	-11.5623
▁ric	-11.5628
▁172	-11.5633
▁mer	-11.5635
▁tribe	-11.5637
▁exe	-11.5646
▁generate	-11.5653
▁prosecut	-11.5658
▁alcohol	-11.566
▁boulder	-11.566
▁conscien	-11.566
▁extraordinar	-11.566
▁ferrari	-11.566
▁lawsuit	-11.566
▁decisive	-11.566
proxim	-11.566
▁bernissart	-11.566
▁unfortunate	-11.566
▁incredibl	-11.566
▁moritz	-11.566
▁prefecture	-11.5661
▁enact	-11.5661
▁routine	-11.5661
▁massacre	-11.5661
▁courage	-11.5661
▁marble	-11.5663
▁reproduction	-11.5665
▁confrontation	-11.5665
▁alert	-11.5666
▁expectation	-11.5667
▁bio	-11.5667
▁divert	-11.5667
▁pear	-11.5668
▁astra	-11.5668
▁raw	-11.5668
▁corresponden	-11.5668
arah	-11.567
▁beau	-11.5673
▁slea	-11.5674
▁revision	-11.5679
imi	-11.5679
▁sue	-11.5682
▁plantation	-11.5684
▁recipe	-11.5687
raba	-11.5689
▁automatic	-11.5689
▁sociolog	-11.569
▁lithuanian	-11.5693
akim	-11.5699
atra	-11.5701
▁mistaken	-11.5704
▁boot	-11.5713
▁tar	-11.5723
▁exo	-11.5729
▁swan	-11.573
solution	-11.5732
▁instrumental	-11.5734
▁affection	-11.5736
vette	-11.5745
▁tyre	-11.5757
▁subordinate	-11.5758
▁proof	-11.5759
▁symbolic	-11.576
▁nett	-11.577
witt	-11.5776
erik	-11.578
rosaur	-11.5782
▁provok	-11.5787
▁lie	-11.5796
imo	-11.5797
▁nail	-11.5798
▁conspira	-11.5806
hill	-11.5816
ul	-11.5819
▁167	-11.5834
▁dom	-11.5841
▁shaw	-11.5847
▁levin	-11.5851
▁pam	-11.5851
▁informal	-11.5857
▁dressing	-11.5858
▁leo	-11.5863
▁troubles	-11.5868
▁crim	-11.5869
nts	-11.5873
▁tan	-11.5875
▁mold	-11.5878
▁empt	-11.5882
ceratops	-11.5883
dv	-11.5884
nnis	-11.5884
ovac	-11.5885
▁mini	-11.5887
bbie	-11.5888
bar	-11.5896
▁emi	-11.591
▁alb	-11.5912
▁evacuate	-11.5913
▁dreams	-11.5915
aq	-11.5917
▁exceptional	-11.5919
lain	-11.5924
▁161	-11.5926
isle	-11.5948
▁ferd	-11.5952
▁litter	-11.5956
▁108	-11.5956
▁summari	-11.5965
duction	-11.5966
rude	-11.5966
▁tai	-11.5966
▁manufacture	-11.5967
▁battles	-11.597
▁kr	-11.597
▁dominate	-11.5971
▁identifie	-11.5971
▁loyalt	-11.5973
▁commit	-11.5981
▁geologic	-11.5982
▁yang	-11.5982
▁eligib	-11.5983
▁microscop	-11.5983
▁lithuania	-11.5983
ib	-11.5984
▁terror	-11.599
▁emphasiz	-11.5993
▁hu	-11.5994
▁roch	-11.5995
▁traveler	-11.6007
▁bite	-11.6008
▁contradict	-11.6008
chobe	-11.6012
erior	-11.6012
▁prefect	-11.6017
▁bootleg	-11.6017
▁gendarme	-11.6017
▁triangle	-11.6017
▁fluid	-11.6017
▁jealous	-11.6017
▁repetiti	-11.6017
▁swallow	-11.6017
▁insult	-11.6017
▁sulfide	-11.6017
▁uneven	-11.6017
▁fierce	-11.6017
▁stalk	-11.6017
▁medicine	-11.6017
▁groove	-11.6018
▁horizontal	-11.6018
▁roundabout	-11.6018
▁yoko	-11.6018
▁cream	-11.6018
▁galax	-11.6019
▁uncover	-11.602
▁retro	-11.602
verst	-11.6021
▁grec	-11.6022
pegg	-11.6024
▁ragh	-11.6024
▁intent	-11.6025
▁breach	-11.6025
▁servant	-11.6026
▁jai	-11.6026
▁texture	-11.6026
▁estuar	-11.6027
▁innovation	-11.6028
▁shout	-11.603
▁slipp	-11.603
▁analyze	-11.6032
▁loch	-11.6032
▁supervisor	-11.6034
▁shall	-11.6034
▁statute	-11.6039
▁grassland	-11.6039
▁crane	-11.6042
▁besieg	-11.6042
▁116	-11.6043
▁progressive	-11.6048
▁adrian	-11.6048
▁inventor	-11.6053
▁rector	-11.6054
▁bold	-11.6056
jing	-11.6059
dia	-11.6065
▁pile	-11.6066
▁hib	-11.6067
▁treasur	-11.6067
▁tough	-11.6069
▁fronti	-11.607
▁morti	-11.6072
▁accent	-11.6073
▁cherr	-11.608
aver	-11.6083
▁gre	-11.6087
▁satire	-11.6094
thic	-11.6105
▁seas	-11.6106
▁dors	-11.6109
▁dunn	-11.6109
liam	-11.6125
strum	-11.6126
▁inaugurat	-11.6127
▁emb	-11.6133
dining	-11.6148
aria	-11.6149
sé	-11.6158
▁hanna	-11.6165
▁duch	-11.6166
▁cass	-11.6173
inaw	-11.6176
▁mcg	-11.6177
▁judg	-11.6179
▁mast	-11.6181
tr	-11.6183
ctor	-11.619
organ	-11.6213
stin	-11.6214
op	-11.6236
▁keeper	-11.6246
▁129	-11.6255
▁caps	-11.6259
▁mora	-11.6264
wall	-11.6273
▁carving	-11.6273
raid	-11.6273
hemi	-11.6276
▁ow	-11.6286
▁utiliz	-11.6288
▁cure	-11.6288
▁julie	-11.6293
▁seize	-11.6297
anya	-11.6301
▁finn	-11.6308
▁bun	-11.6309
ho	-11.6318
ack	-11.6325
emic	-11.633
▁hom	-11.6331
▁cooperati	-11.6337
castle	-11.6358
▁102	-11.6365
▁orient	-11.6377
▁overlap	-11.6381
▁kra	-11.6384
▁torpedoe	-11.6387
▁corrupt	-11.6388
▁explanation	-11.6388
▁hemmema	-11.6388
▁pocket	-11.6388
▁prehistor	-11.6388
▁recount	-11.6388
▁resurrect	-11.6388
▁scandinavia	-11.6388
▁workshop	-11.6388
▁drown	-11.6388
▁theoretical	-11.6388
▁throat	-11.6388
▁purpl	-11.6388
▁pilgrim	-11.6388
cairn	-11.6388
▁prevalen	-11.6388
▁compartment	-11.6388
▁treason	-11.6388
▁fletch	-11.6388
▁venom	-11.6388
▁dissent	-11.6388
savanna	-11.6388
▁conceal	-11.6388
▁kahn	-11.6388
▁cartoon	-11.6388
▁sitcom	-11.6389
▁patent	-11.6389
▁outdoor	-11.6389
▁phillip	-11.6389
▁viewpoint	-11.6389
▁discard	-11.6389
▁trademark	-11.6389
▁capabilit	-11.639
▁clement	-11.639
precedent	-11.6393
▁hospitaller	-11.6393
▁serge	-11.6394
▁invention	-11.6396
▁delight	-11.6397
vor	-11.6398
▁alteration	-11.6398
zzo	-11.64
▁fumble	-11.6401
incar	-11.6401
▁doo	-11.6402
▁schm	-11.6403
▁jail	-11.6408
▁replay	-11.6409
▁pun	-11.6412
▁emphasize	-11.6413
▁gaz	-11.6415
▁vol	-11.6415
▁dig	-11.6416
▁rows	-11.6417
▁marker	-11.6418
▁hond	-11.6419
▁chile	-11.6422
▁vicar	-11.6424
▁calm	-11.6424
▁consumer	-11.643
mediate	-11.6433
▁relieve	-11.6434
ane	-11.6437
▁lens	-11.6438
▁hurdle	-11.644
▁mitsu	-11.644
nen	-11.6441
▁refuge	-11.6441
ating	-11.6444
▁aki	-11.6444
▁abd	-11.6445
▁guards	-11.6447
▁fork	-11.6448
▁lang	-11.6451
▁cage	-11.6453
▁ria	-11.6459
▁mcma	-11.6462
▁philosopher	-11.6462
▁shan	-11.6466
▁melt	-11.647
▁maid	-11.6475
continu	-11.6483
▁cove	-11.6485
▁pot	-11.6494
tille	-11.65
▁dancer	-11.6505
ft	-11.6508
▁matri	-11.6511
▁bag	-11.6523
▁appreciat	-11.6539
dick	-11.6543
▁worri	-11.6544
cock	-11.6546
nym	-11.6546
▁spine	-11.6547
▁assassin	-11.6549
cycle	-11.6554
continent	-11.6555
▁manning	-11.6556
liot	-11.6557
number	-11.6557
assign	-11.656
limit	-11.656
critic	-11.6561
▁seam	-11.6562
▁asset	-11.6565
tor	-11.6573
▁inc	-11.6578
unes	-11.6579
ré	-11.6582
▁kau	-11.6589
ntage	-11.6591
than	-11.6594
▁upgrade	-11.6595
▁vine	-11.6598
▁berm	-11.6604
▁sighting	-11.661
▁builder	-11.6617
▁meat	-11.6617
▁cooke	-11.662
▁tama	-11.6621
ngue	-11.6623
▁nel	-11.6623
▁hama	-11.6624
wal	-11.6625
▁alon	-11.6634
▁und	-11.6634
▁hail	-11.6639
▁thi	-11.6642
nagar	-11.6644
tsu	-11.6645
▁chem	-11.665
▁announce	-11.665
▁align	-11.6655
▁mona	-11.6658
war	-11.6666
▁pore	-11.6673
▁venge	-11.6675
▁migrat	-11.6675
▁scots	-11.6679
llo	-11.6691
▁bent	-11.6693
dolph	-11.6694
▁spokes	-11.6697
▁spann	-11.6702
ida	-11.6705
▁harsha	-11.6705
▁persuade	-11.6706
uli	-11.6708
▁resolv	-11.6711
▁intentional	-11.6713
stian	-11.6726
pite	-11.6726
nick	-11.6732
▁heroin	-11.6732
▁lev	-11.6735
twe	-11.674
▁permit	-11.6743
ardo	-11.6745
▁riff	-11.6747
clu	-11.675
▁depress	-11.6763
chau	-11.6764
▁poki	-11.6766
▁normand	-11.6767
▁mcdo	-11.6769
nfluence	-11.677
▁algorithm	-11.6772
▁hoysala	-11.6772
▁melanchol	-11.6772
▁spectator	-11.6772
▁ylide	-11.6772
▁viking	-11.6772
▁profound	-11.6772
▁comparative	-11.6773
▁cyto	-11.6773
▁gambi	-11.6773
▁prolong	-11.6773
▁vo	-11.6773
▁flashback	-11.6774
▁facade	-11.6774
▁wilfri	-11.6774
▁elegan	-11.6774
▁confederate	-11.6774
▁fortifi	-11.6774
▁annoy	-11.6774
smack	-11.6775
▁allegation	-11.6775
▁virus	-11.6775
▁outlaw	-11.6775
▁carnival	-11.6776
▁peaceful	-11.6777
▁trustee	-11.6777
▁attendant	-11.6778
tigo	-11.6779
▁philosophical	-11.6779
▁dull	-11.678
▁teenager	-11.678
▁llan	-11.678
▁renovation	-11.6781
▁accomplishment	-11.6781
▁installation	-11.6781
▁steer	-11.6783
▁duck	-11.6786
▁morpholog	-11.6787
▁ci	-11.6787
rya	-11.6787
▁bug	-11.6788
▁worse	-11.6789
▁reache	-11.679
▁layout	-11.6791
▁ambitio	-11.6794
▁eg	-11.6795
▁valentin	-11.6795
▁750	-11.6796
acco	-11.68
▁specification	-11.6804
▁confident	-11.6806
tta	-11.6814
▁addict	-11.6816
▁kun	-11.6818
▁insur	-11.6823
▁distinction	-11.6823
▁inclin	-11.6826
▁extract	-11.6826
▁racis	-11.683
▁jenni	-11.6831
oma	-11.6836
▁persuad	-11.6839
▁sali	-11.6847
ola	-11.6852
▁rout	-11.6856
dale	-11.6857
▁fau	-11.6862
▁dish	-11.6869
ough	-11.6877
▁albe	-11.6878
▁cull	-11.6899
aughter	-11.6901
▁license	-11.6904
▁bab	-11.6906
▁wilder	-11.6907
▁eno	-11.6909
▁accelerat	-11.6909
iris	-11.6914
marily	-11.6922
zor	-11.693
▁periodical	-11.6937
▁mann	-11.6938
▁educat	-11.6944
mel	-11.6944
▁sher	-11.6947
uarte	-11.6952
rash	-11.6955
▁organize	-11.6959
▁negotiat	-11.6966
▁clash	-11.6973
▁differentiat	-11.6976
▁151	-11.6977
▁blast	-11.6978
▁elde	-11.6982
visibl	-11.6994
▁cushi	-11.6995
world	-11.6995
view	-11.7008
▁strat	-11.7012
▁frontal	-11.7022
lster	-11.7022
▁pecki	-11.7023
▁pap	-11.7024
enna	-11.7041
grid	-11.7043
▁vers	-11.7047
▁lecture	-11.7056
ow	-11.7086
ood	-11.7095
▁por	-11.7102
ulf	-11.7104
▁af	-11.7104
dad	-11.7105
▁refugee	-11.7115
▁morav	-11.7123
dian	-11.7131
▁chor	-11.7132
▁spit	-11.7133
▁destruct	-11.7136
▁nuclei	-11.7143
achi	-11.7143
▁emma	-11.7146
pit	-11.7148
▁swimm	-11.7148
▁rama	-11.7149
▁zealander	-11.7153
vas	-11.7154
cious	-11.7154
▁olivi	-11.7156
arious	-11.7158
▁ignore	-11.716
rtz	-11.7161
▁motivat	-11.7163
▁intercept	-11.7163
▁amphibi	-11.7168
▁dictator	-11.7172
▁obsole	-11.7172
▁ecosystem	-11.7172
▁hairstyle	-11.7172
▁ironclad	-11.7172
▁maneuver	-11.7172
▁odysse	-11.7172
▁recapture	-11.7172
▁sanction	-11.7172
▁scream	-11.7172
▁supernova	-11.7172
▁theologian	-11.7172
▁unemploy	-11.7172
▁acquisition	-11.7172
▁constituenc	-11.7172
▁sporadic	-11.7172
▁cultivat	-11.7172
▁insurgent	-11.7172
▁metaphor	-11.7172
▁galile	-11.7173
▁stiff	-11.7173
▁discharge	-11.7173
▁jacque	-11.7173
▁embryo	-11.7173
▁cheap	-11.7173
anagi	-11.7173
▁betray	-11.7173
▁cruiserweight	-11.7173
▁modification	-11.7173
▁phosphor	-11.7173
▁parodie	-11.7173
▁prosper	-11.7173
▁mound	-11.7173
▁elliot	-11.7173
▁consultant	-11.7173
▁muhammad	-11.7174
▁marvel	-11.7174
▁treb	-11.7174
▁pretend	-11.7174
▁dominion	-11.7174
▁accord	-11.7174
▁tutor	-11.7175
▁wage	-11.7175
▁faithful	-11.7176
▁partition	-11.7176
▁luke	-11.7177
▁concurrent	-11.7178
▁width	-11.7178
▁pour	-11.7179
▁falcon	-11.7179
phore	-11.7179
ours	-11.7179
▁excessive	-11.7179
▁occurrence	-11.718
▁ease	-11.7181
▁tat	-11.7181
▁stallion	-11.7182
erdict	-11.7182
▁sensation	-11.7185
▁homar	-11.7186
anyan	-11.7186
▁munic	-11.7186
mantle	-11.7187
▁hydn	-11.7188
uble	-11.7188
▁snapp	-11.7189
▁cruz	-11.7194
saur	-11.7194
▁missionar	-11.7198
▁veera	-11.7198
austin	-11.7199
▁kubic	-11.7199
▁procedure	-11.7201
▁anglic	-11.7204
▁nasal	-11.7207
▁sprint	-11.7209
▁sf	-11.7209
▁slot	-11.721
▁stall	-11.7218
▁archive	-11.7219
tona	-11.7221
▁farthe	-11.7226
▁tamp	-11.7227
48	-11.7227
▁leon	-11.7228
▁speculate	-11.7239
▁glamor	-11.7243
▁manipulat	-11.7245
▁sect	-11.7247
▁def	-11.7249
▁hil	-11.725
▁fisc	-11.7252
▁derive	-11.7254
▁keen	-11.7256
▁facilitate	-11.7268
nfl	-11.7276
mach	-11.7278
▁sylv	-11.728
inus	-11.7283
▁satisfy	-11.7285
▁drunk	-11.7287
▁breast	-11.7287
éra	-11.7288
onia	-11.7288
▁patch	-11.729
nme	-11.7291
tious	-11.7292
▁sank	-11.7293
▁bleed	-11.7299
▁curio	-11.7301
▁lars	-11.7304
randy	-11.7305
acre	-11.7309
hand	-11.7312
▁emil	-11.7312
▁na	-11.7312
▁synth	-11.7316
▁156	-11.7325
▁shu	-11.7331
▁escap	-11.7336
pol	-11.7344
roth	-11.7356
eff	-11.7357
▁prolif	-11.7358
▁coron	-11.7379
▁scen	-11.739
tland	-11.7391
tters	-11.7392
rok	-11.7397
mw	-11.7401
ibilit	-11.7401
▁terminat	-11.7407
▁fade	-11.7412
▁swell	-11.7414
▁mau	-11.7425
▁beta	-11.743
▁hyph	-11.7435
▁anton	-11.7438
▁satisf	-11.7438
mare	-11.744
iago	-11.7446
point	-11.7447
ov	-11.7447
▁priorit	-11.7453
▁tele	-11.7453
▁pseudo	-11.7456
osa	-11.7456
color	-11.7461
▁envis	-11.7463
▁mobili	-11.747
▁pray	-11.7471
▁forge	-11.7481
▁hungar	-11.7481
▁173	-11.7489
▁recit	-11.749
▁notion	-11.7493
▁lowe	-11.7497
▁container	-11.7509
tender	-11.751
▁breeder	-11.7531
desh	-11.7535
imbalan	-11.7554
▁patter	-11.7558
▁juda	-11.756
▁songwrit	-11.7564
nch	-11.7566
▁gig	-11.7568
▁nobod	-11.7573
▁denn	-11.7576
▁springs	-11.7579
▁reconstruct	-11.758
▁quake	-11.758
▁basal	-11.758
odon	-11.7582
▁oversee	-11.7584
fi	-11.7584
gow	-11.7588
▁sculpt	-11.7589
▁consort	-11.7589
▁epithet	-11.7589
▁eucalypt	-11.7589
▁huguenot	-11.7589
▁misunderst	-11.7589
▁pharaoh	-11.7589
▁unofficial	-11.7589
▁depot	-11.7589
▁fascinat	-11.7589
▁incorrect	-11.7589
▁scleroderma	-11.7589
▁lodge	-11.7589
▁confine	-11.7589
▁steamboat	-11.7589
▁embass	-11.7589
▁griffi	-11.7589
▁haunt	-11.759
▁demoli	-11.759
▁freight	-11.759
▁oath	-11.759
▁stunt	-11.759
▁vague	-11.759
▁dignit	-11.759
▁vivi	-11.7591
▁iberia	-11.7591
▁alpha	-11.7591
ople	-11.7591
▁enclos	-11.7591
▁rumour	-11.7592
▁warrant	-11.7592
percussion	-11.7593
amaic	-11.7594
▁shade	-11.7595
▁mycologi	-11.7595
▁convenien	-11.7595
▁disagreement	-11.7595
orrow	-11.7595
▁bottle	-11.7595
▁dictionar	-11.7597
▁displacement	-11.7597
▁barge	-11.7598
▁unlock	-11.7598
▁delica	-11.7598
▁111	-11.7599
▁accumulat	-11.7602
▁twist	-11.7603
ouver	-11.7604
▁deadline	-11.7604
connor	-11.7605
▁ch	-11.7605
▁suspens	-11.7607
▁huai	-11.7607
hiv	-11.7607
wyn	-11.7613
▁burst	-11.7614
▁footballer	-11.7615
▁clinical	-11.7618
▁adria	-11.7618
▁nige	-11.7622
tus	-11.7623
▁merit	-11.7624
▁sicil	-11.7626
lp	-11.7631
▁synthesize	-11.7631
gent	-11.7639
▁gambl	-11.7641
▁axe	-11.7642
▁sortie	-11.7643
▁vh	-11.7643
▁torn	-11.7645
tw	-11.7645
▁remixe	-11.7645
annad	-11.7657
▁kin	-11.7658
▁mandat	-11.7658
▁shang	-11.7662
▁assumption	-11.767
ingrid	-11.7671
▁mutin	-11.7673
ike	-11.7682
▁patroll	-11.7685
uzz	-11.7698
hen	-11.77
ef	-11.7702
▁cheer	-11.7703
atherin	-11.7707
▁lem	-11.7707
▁gerr	-11.7711
▁puck	-11.7733
▁lone	-11.7733
▁103	-11.7733
▁tit	-11.7741
▁kend	-11.7746
▁honest	-11.7748
ast	-11.7764
omit	-11.7764
▁rescu	-11.7771
blad	-11.7772
▁gb	-11.7779
nam	-11.7783
▁captive	-11.7783
▁persona	-11.7792
enden	-11.7797
wa	-11.7805
▁rely	-11.7807
▁seller	-11.7811
ges	-11.7813
▁dop	-11.7819
▁organism	-11.7823
how	-11.7824
apy	-11.7828
range	-11.7831
▁135	-11.7834
sper	-11.7836
aire	-11.7841
▁reside	-11.7848
▁schu	-11.7857
▁citizen	-11.7861
merg	-11.7869
hem	-11.7885
▁tract	-11.7885
▁trailer	-11.7885
▁domo	-11.7888
▁indiana	-11.7893
wage	-11.7899
▁unrel	-11.7901
▁ivor	-11.7915
▁smok	-11.7916
ura	-11.7918
ceo	-11.7918
▁sac	-11.7919
▁compensat	-11.792
market	-11.7925
strong	-11.7926
print	-11.7927
dock	-11.7937
▁myelo	-11.7954
▁tir	-11.7963
lier	-11.7965
q	-11.7972
▁rivalr	-11.7976
▁fant	-11.7985
▁mah	-11.799
▁gem	-11.8
lude	-11.801
anka	-11.8011
▁hostilit	-11.8013
iscount	-11.8018
▁adjust	-11.802
iscus	-11.8024
▁prognos	-11.8024
▁ambulance	-11.8024
▁illuminat	-11.8024
▁jurisdiction	-11.8024
▁lobster	-11.8024
▁pompe	-11.8024
▁substrate	-11.8024
▁undergraduate	-11.8024
▁expir	-11.8024
▁surprising	-11.8024
▁unanimous	-11.8024
▁siberia	-11.8024
▁ultra	-11.8024
▁unveil	-11.8024
▁constrain	-11.8024
▁abraham	-11.8024
▁gauge	-11.8024
▁pianist	-11.8024
▁spider	-11.8024
▁decree	-11.8024
▁smash	-11.8024
▁tribun	-11.8024
▁abram	-11.8024
▁taunt	-11.8024
▁engrav	-11.8024
▁revelation	-11.8025
▁admission	-11.8025
▁proud	-11.8025
▁torch	-11.8026
▁grape	-11.8027
▁chef	-11.8027
▁harass	-11.8027
▁sparse	-11.8027
▁commemorate	-11.8028
▁funnel	-11.8028
▁annex	-11.8028
▁distress	-11.8028
▁shipyard	-11.8031
▁naturalist	-11.8033
▁moham	-11.8033
▁imma	-11.8033
▁harve	-11.8033
▁rework	-11.8033
▁holland	-11.804
▁gentle	-11.804
▁boost	-11.8042
▁palmyr	-11.8043
▁liga	-11.8043
▁stabiliz	-11.8045
rypt	-11.8047
▁scha	-11.8052
mp	-11.8054
ato	-11.8055
▁nerv	-11.8056
▁polytr	-11.8059
▁brass	-11.8059
▁assignment	-11.8063
▁nucleo	-11.8064
▁pulse	-11.8066
▁nm	-11.807
▁theodor	-11.8071
▁luc	-11.8073
▁highlander	-11.8076
ensus	-11.8077
▁sema	-11.8077
▁stup	-11.8077
▁ideolog	-11.8078
▁donor	-11.8083
▁microscopic	-11.8085
▁jung	-11.8093
illan	-11.8094
▁interactiv	-11.8094
▁delan	-11.8095
luis	-11.81
▁prose	-11.8102
rometric	-11.8105
▁chenn	-11.8114
▁henri	-11.8114
▁hinde	-11.8117
▁midland	-11.812
rank	-11.812
▁malaya	-11.8121
aki	-11.8121
rake	-11.8127
▁palen	-11.813
▁realm	-11.813
ilda	-11.8153
▁kar	-11.8155
▁locate	-11.8157
cfarlan	-11.8169
▁jess	-11.817
▁exceeding	-11.8176
▁explode	-11.8179
uchi	-11.8189
▁sabo	-11.8191
▁tang	-11.8192
loph	-11.8192
▁hamm	-11.8194
pus	-11.8201
▁operative	-11.8201
▁arrange	-11.8203
ogle	-11.8204
building	-11.8223
ash	-11.8225
toge	-11.8225
uve	-11.8226
ig	-11.8226
otal	-11.8226
▁capp	-11.8229
clear	-11.823
pp	-11.8231
▁champ	-11.8234
▁embodi	-11.8237
▁rosa	-11.8242
▁negotiate	-11.8243
▁focuse	-11.8249
erti	-11.825
▁sim	-11.825
▁canop	-11.8251
▁utter	-11.8252
▁dubi	-11.8258
▁thak	-11.8271
▁teache	-11.8284
▁iran	-11.8292
inari	-11.8294
▁sixt	-11.8298
▁shi	-11.8299
▁legitimate	-11.83
rah	-11.83
▁translate	-11.8302
▁selective	-11.8312
▁qua	-11.8313
▁bre	-11.832
neapoli	-11.8326
▁pron	-11.8328
▁widen	-11.8329
▁rever	-11.8331
▁kash	-11.8339
ferr	-11.8344
▁temperat	-11.8357
hor	-11.8365
enni	-11.8375
▁temper	-11.8379
ria	-11.8381
roke	-11.8382
▁robins	-11.8386
▁fusi	-11.8389
▁linds	-11.8392
▁steven	-11.8394
▁laur	-11.8396
mour	-11.8396
pencer	-11.8403
▁109	-11.8405
nounce	-11.8409
marca	-11.8411
▁barre	-11.8412
tuck	-11.8414
▁odes	-11.8415
hai	-11.8417
smith	-11.8421
boom	-11.8422
icon	-11.8422
nate	-11.8423
und	-11.8427
▁pel	-11.8433
eville	-11.8434
▁scal	-11.8434
▁penetrat	-11.8437
force	-11.844
▁pressing	-11.8443
▁gains	-11.8448
endar	-11.8453
▁barbi	-11.8453
nder	-11.8457
llen	-11.8461
▁bard	-11.8462
arden	-11.8463
opsi	-11.8468
▁renovat	-11.8469
bois	-11.847
▁teenage	-11.8472
ignment	-11.8473
▁advent	-11.8477
mpact	-11.8478
▁consecrat	-11.8478
▁reluctan	-11.8478
▁arbeider	-11.8478
▁immense	-11.8478
▁privilege	-11.8478
▁vaishnav	-11.8478
▁clerk	-11.8478
▁irrigat	-11.8478
▁spectac	-11.8478
▁client	-11.8478
▁deserve	-11.8478
▁eager	-11.8479
▁flint	-11.8479
▁compell	-11.8479
croft	-11.8479
▁prussia	-11.8479
▁niche	-11.8479
▁nomad	-11.8479
▁sperm	-11.8479
▁unpopular	-11.8479
▁persistent	-11.848
▁plaque	-11.848
▁strait	-11.848
▁torture	-11.848
▁physicist	-11.8481
▁cedar	-11.8481
▁remaster	-11.8481
extraterrestrial	-11.8481
amun	-11.8482
▁karamok	-11.8483
▁reef	-11.8483
▁cosmo	-11.8484
avelin	-11.8485
▁ltd	-11.8485
▁eugen	-11.8486
▁flatten	-11.849
▁chip	-11.8491
▁hui	-11.8492
▁calculation	-11.8492
▁expel	-11.8493
▁enthusiastic	-11.8494
▁pastor	-11.8494
▁cabr	-11.8494
▁feat	-11.8496
▁novelist	-11.8497
▁leap	-11.8498
▁1820	-11.8498
▁flightless	-11.8499
▁peronis	-11.8499
▁astonish	-11.85
▁protector	-11.8501
▁inspire	-11.8503
▁bryan	-11.8504
▁clearance	-11.8508
▁devon	-11.8509
▁prediction	-11.8509
▁oswal	-11.8509
▁nude	-11.8512
▁obe	-11.8513
▁rim	-11.8518
▁crack	-11.852
▁tak	-11.8522
▁foca	-11.8523
cri	-11.8524
▁cg	-11.8524
uki	-11.8525
▁kras	-11.8525
arch	-11.853
▁peck	-11.8533
▁practi	-11.8539
▁hispani	-11.8544
▁lament	-11.8548
wii	-11.8552
niec	-11.8562
cc	-11.8569
cheer	-11.857
olka	-11.8571
▁delegat	-11.8578
oshi	-11.8598
▁ledge	-11.8598
▁auto	-11.8604
▁invent	-11.8605
▁hire	-11.861
▁ceremoni	-11.861
ission	-11.861
▁mort	-11.8612
▁degrad	-11.8616
tany	-11.862
iate	-11.862
▁kerr	-11.8622
hr	-11.8628
▁enhanc	-11.8634
seba	-11.864
bone	-11.8641
▁holli	-11.8643
▁uh	-11.8644
▁violat	-11.8647
▁massa	-11.8648
sake	-11.8655
▁coache	-11.8661
▁labell	-11.8662
▁126	-11.8663
nanc	-11.8665
cher	-11.8665
▁popula	-11.8668
▁nas	-11.8668
▁teen	-11.8669
▁forget	-11.8673
sia	-11.8676
▁rev	-11.8687
mit	-11.8687
▁fertil	-11.8689
▁kara	-11.8694
▁commence	-11.8699
▁conni	-11.8703
viole	-11.8715
▁affirm	-11.872
▁ruf	-11.8721
▁doc	-11.8723
▁gear	-11.8729
ednes	-11.8734
ison	-11.874
gua	-11.875
▁indo	-11.876
lf	-11.8762
▁borea	-11.8771
ual	-11.8771
▁forgive	-11.8772
▁seasonal	-11.8778
tara	-11.8778
▁outrage	-11.8778
hy	-11.8784
▁democra	-11.8786
▁marin	-11.8788
▁unknow	-11.8792
▁modell	-11.8797
▁brui	-11.8802
▁baye	-11.8812
▁optimis	-11.8815
aur	-11.8815
▁frog	-11.8823
trud	-11.8838
▁vest	-11.8841
▁integr	-11.8846
thos	-11.885
▁hor	-11.8851
▁orso	-11.8869
▁attacker	-11.8873
lane	-11.8873
▁edi	-11.888
▁meal	-11.8885
shine	-11.8886
phine	-11.8887
keeper	-11.8888
rio	-11.8896
ja	-11.8897
▁nf	-11.8906
▁cope	-11.8909
▁zap	-11.8911
resco	-11.8915
▁prominen	-11.8929
▁inspect	-11.8929
av	-11.8935
powder	-11.8935
▁yea	-11.8936
octa	-11.8944
slot	-11.8944
▁petit	-11.8947
sufficient	-11.8947
▁lil	-11.8953
▁hubbard	-11.8955
▁accommodation	-11.8955
▁cossack	-11.8955
▁migrant	-11.8955
▁rehabilitat	-11.8955
▁superficial	-11.8955
▁abolition	-11.8955
▁bacteria	-11.8955
▁klingon	-11.8955
▁outpost	-11.8955
▁bluff	-11.8955
▁buckingham	-11.8955
▁wheat	-11.8955
▁wizard	-11.8955
▁benedict	-11.8955
▁gravitational	-11.8955
▁nottingham	-11.8955
▁vigorous	-11.8955
pulc	-11.8955
▁vassal	-11.8955
▁dockyard	-11.8955
▁confederation	-11.8955
▁obligation	-11.8956
▁grasp	-11.8956
▁wonderful	-11.8957
▁redevelop	-11.8957
▁textile	-11.8957
▁distortion	-11.8957
▁breath	-11.8958
▁punish	-11.8959
▁fig	-11.896
▁cascad	-11.8961
▁calculator	-11.8962
▁fond	-11.8962
▁ditch	-11.8962
▁lamin	-11.8963
hiban	-11.8964
jiang	-11.8965
isation	-11.8969
▁suite	-11.8973
▁stranger	-11.8974
▁maker	-11.8974
▁insight	-11.8974
▁phoenicia	-11.8975
▁fitz	-11.8978
▁115	-11.8979
kaz	-11.8982
▁brent	-11.8982
nuclea	-11.8983
▁bosnian	-11.8984
▁280	-11.8987
▁lung	-11.8988
flow	-11.8989
▁cement	-11.899
▁figg	-11.8992
mita	-11.9007
▁indication	-11.9007
▁beard	-11.9008
▁nonsens	-11.9013
▁poster	-11.9017
▁laser	-11.9017
zart	-11.9022
▁screening	-11.9027
ryll	-11.9029
▁mous	-11.903
▁glori	-11.9036
▁mongolia	-11.9036
gestion	-11.9039
▁buck	-11.9044
▁antiquari	-11.9045
rgen	-11.9057
zr	-11.9063
▁centen	-11.9063
▁legion	-11.9067
▁belle	-11.9068
▁harmoni	-11.907
isto	-11.9073
ome	-11.9078
mother	-11.9083
▁beneficia	-11.9086
hon	-11.9087
▁hung	-11.9087
hari	-11.9096
▁emigrat	-11.91
▁dome	-11.91
rik	-11.91
▁airpla	-11.91
till	-11.9117
▁beg	-11.9123
qui	-11.9123
▁coli	-11.9126
folio	-11.9126
lomon	-11.9128
manda	-11.913
▁worshippe	-11.9132
▁swede	-11.9138
▁discusse	-11.914
▁153	-11.9146
▁lauren	-11.915
▁kno	-11.9151
▁tra	-11.9157
▁herbi	-11.9158
etter	-11.9164
▁induc	-11.9167
diana	-11.9167
▁sara	-11.9169
▁1.	-11.9172
▁input	-11.9184
▁organizer	-11.9194
aj	-11.9218
▁refere	-11.9227
▁wein	-11.9228
▁branche	-11.9231
▁proven	-11.9233
▁expose	-11.9235
▁kel	-11.9236
dos	-11.9238
eller	-11.924
▁borg	-11.9243
▁undert	-11.9263
erra	-11.9267
▁gentlem	-11.927
▁152	-11.9275
▁happi	-11.9276
▁scho	-11.9286
▁unus	-11.9289
ucker	-11.9289
fric	-11.929
▁mcca	-11.9297
▁cod	-11.9301
▁consume	-11.9302
▁satak	-11.9305
stance	-11.9317
▁replica	-11.9325
mi	-11.9329
▁arn	-11.933
▁cau	-11.933
ios	-11.933
tter	-11.935
▁forag	-11.9352
▁anna	-11.9369
▁doug	-11.9371
▁piet	-11.9383
laf	-11.9384
▁atmospher	-11.9384
▁slo	-11.9387
tt	-11.9395
haraj	-11.9396
▁fo	-11.9398
▁johann	-11.94
▁popma	-11.94
▁equall	-11.9402
▁blo	-11.9408
rze	-11.941
ec	-11.9411
▁regulate	-11.9415
▁berli	-11.9417
▁burt	-11.9419
▁trib	-11.9422
tze	-11.9428
rance	-11.9434
cumb	-11.9436
▁certificat	-11.9445
lown	-11.9447
hatt	-11.945
▁administrator	-11.9455
▁artifact	-11.9455
▁authentic	-11.9455
▁chestnut	-11.9455
▁diminish	-11.9455
▁dreadnought	-11.9455
▁embarrass	-11.9455
▁kilogram	-11.9455
▁manoeuvre	-11.9455
▁syllable	-11.9455
▁templar	-11.9455
▁freestyle	-11.9455
▁posthumous	-11.9455
▁trivial	-11.9455
▁nguy	-11.9455
▁notorious	-11.9455
▁motive	-11.9455
▁postpone	-11.9455
▁emplacement	-11.9455
▁trauma	-11.9455
▁larva	-11.9455
▁sewer	-11.9455
▁pornograph	-11.9455
▁iconograph	-11.9455
▁mozambican	-11.9455
▁vowel	-11.9455
▁blond	-11.9456
▁preference	-11.9456
▁revisit	-11.9457
▁furious	-11.9457
▁pond	-11.9457
▁prosecutor	-11.9458
▁courtyard	-11.9459
▁reunit	-11.9459
identifi	-11.9459
▁fascist	-11.9459
▁crypt	-11.946
▁punch	-11.946
▁wolver	-11.9461
▁relic	-11.9462
▁rebound	-11.9463
▁howitzer	-11.9464
▁fati	-11.9465
▁pathway	-11.9465
▁beque	-11.9466
nna	-11.9466
▁mould	-11.9467
tro	-11.9468
▁cotta	-11.9468
▁warwick	-11.947
▁detonat	-11.9471
▁criteri	-11.9472
▁diam	-11.9472
▁invertebrate	-11.9475
▁generator	-11.9476
▁absen	-11.9478
thor	-11.9479
▁dalm	-11.948
nson	-11.9481
▁prostitute	-11.9483
hoo	-11.9484
▁testimon	-11.9485
realm	-11.9485
riff	-11.9489
▁hamp	-11.9491
▁prow	-11.9492
osion	-11.9493
bab	-11.9493
▁soc	-11.9495
▁cassin	-11.9499
▁surgeon	-11.9499
dex	-11.95
stick	-11.9504
▁hinder	-11.9504
necessar	-11.9504
▁circu	-11.9505
chair	-11.9507
thick	-11.9508
▁traverse	-11.9509
▁coma	-11.9509
▁await	-11.951
▁endorse	-11.9519
morph	-11.9519
▁yama	-11.9521
▁lease	-11.9521
▁hitter	-11.9523
▁isla	-11.9525
▁jeffer	-11.9527
▁qin	-11.9532
▁surf	-11.9532
▁petrol	-11.9543
azi	-11.9543
▁dismissal	-11.9544
mor	-11.9553
▁befriend	-11.9555
▁prai	-11.9563
▁propell	-11.9567
▁clade	-11.9569
▁exercis	-11.9574
uku	-11.9575
▁revol	-11.9577
▁jak	-11.9583
▁prae	-11.9587
▁fret	-11.9589
▁stimulat	-11.9592
▁finch	-11.9598
▁comfortabl	-11.9598
▁den	-11.9606
▁tow	-11.9606
rid	-11.9609
▁inf	-11.9609
▁bolt	-11.961
spective	-11.9614
▁vib	-11.9615
▁papa	-11.9618
usa	-11.963
logical	-11.9631
spector	-11.964
▁juli	-11.9642
▁testif	-11.9643
ibn	-11.9644
▁polar	-11.9645
cow	-11.9652
jin	-11.9654
awake	-11.966
▁excite	-11.966
▁civi	-11.9661
▁soph	-11.9662
▁pas	-11.9664
▁bron	-11.9671
vann	-11.9673
▁rider	-11.9675
ient	-11.969
▁pal	-11.9697
▁thie	-11.9701
▁morel	-11.9706
key	-11.9707
▁aria	-11.9708
▁tre	-11.9713
▁compatib	-11.9716
▁automobile	-11.9716
▁tap	-11.9719
twick	-11.9724
rf	-11.9725
▁shorten	-11.9728
▁qu	-11.9728
▁dispos	-11.9732
graph	-11.9733
▁pett	-11.9737
kok	-11.9742
▁peni	-11.9743
▁mk	-11.9744
tine	-11.9746
thur	-11.9749
▁luci	-11.9753
▁mut	-11.9754
▁ven	-11.9764
▁invite	-11.9769
▁please	-11.9776
andis	-11.978
geon	-11.9791
pez	-11.98
▁aft	-11.9806
va	-11.9806
▁320	-11.981
▁sta	-11.982
arvin	-11.9833
sure	-11.9836
corporate	-11.984
emma	-11.9841
azor	-11.9842
gh	-11.9844
▁disab	-11.9845
▁nap	-11.9857
▁receiver	-11.986
rca	-11.987
▁localiz	-11.9873
▁verm	-11.9874
▁mono	-11.9877
alo	-11.9877
▁reu	-11.9881
ita	-11.9884
▁sampl	-11.989
nish	-11.9896
▁alban	-11.99
▁rott	-11.9905
litter	-11.9909
eu	-11.9909
▁motto	-11.9914
▁roos	-11.992
▁satir	-11.9924
▁contend	-11.994
▁proto	-11.9941
uckle	-11.9942
vana	-11.9948
▁submit	-11.9951
▁collin	-11.9959
frey	-11.9968
▁etc	-11.9968
▁hbo	-11.997
▁distract	-11.9973
▁phoe	-11.9976
▁eccles	-11.9978
▁bombard	-11.9979
▁autonom	-11.9979
tepe	-11.9979
▁spear	-11.998
grenadier	-11.9981
scapterisc	-11.9981
▁accolade	-11.9981
▁auction	-11.9981
▁bankrupt	-11.9981
▁choreograph	-11.9981
▁counterfeit	-11.9981
▁diarma	-11.9981
▁episcopa	-11.9981
▁reptile	-11.9981
▁roadblock	-11.9981
▁sovetsk	-11.9981
▁recipient	-11.9981
▁smuggl	-11.9981
▁unwilling	-11.9981
▁exaggerat	-11.9981
▁clutch	-11.9981
▁eukaryot	-11.9981
efact	-11.9981
skirt	-11.9981
▁antarctic	-11.9981
▁nutrient	-11.9981
▁curricul	-11.9981
▁rodrigue	-11.9981
▁eurasia	-11.9981
▁derivative	-11.9981
iastical	-11.9981
▁hazard	-11.9981
▁kristians	-11.9981
▁spontaneous	-11.9981
▁spoil	-11.9981
▁pollut	-11.9981
▁slab	-11.9981
▁travi	-11.9982
▁bulkhead	-11.9982
▁burden	-11.9982
▁librett	-11.9983
▁earthstar	-11.9983
▁fake	-11.9983
▁receptor	-11.9983
▁veil	-11.9984
▁puritan	-11.9984
▁whig	-11.9984
▁analog	-11.9984
▁classroom	-11.9984
▁bucket	-11.9985
▁ballot	-11.9985
▁endorsement	-11.9985
▁uno	-11.9985
▁calder	-11.9986
evel	-11.9987
▁utilit	-11.9987
▁midfielder	-11.9988
▁hank	-11.9989
▁odor	-11.9989
▁refit	-11.9994
▁rope	-11.9994
▁wetland	-11.9994
▁loot	-11.9994
▁demons	-11.9994
dard	-11.9994
▁tendenc	-11.9995
▁gamer	-11.9997
anzani	-12
▁milan	-12.0004
vacha	-12.0004
▁gait	-12.0004
▁scand	-12.0005
▁propeller	-12.0005
▁prohibition	-12.0006
▁scribe	-12.0007
▁gea	-12.0013
▁julia	-12.0014
▁espn	-12.0015
▁subdivi	-12.0015
elo	-12.0016
▁remed	-12.0016
rmal	-12.0017
▁diversion	-12.0017
▁tad	-12.0018
▁adorn	-12.0019
nant	-12.0021
▁punctu	-12.0023
▁vein	-12.0023
▁leukemi	-12.0031
▁southward	-12.0035
▁bead	-12.0037
▁nomen	-12.0039
▁pict	-12.0042
▁vanc	-12.0044
▁lend	-12.0044
okan	-12.0045
▁ethic	-12.005
▁stripp	-12.0052
raig	-12.0058
▁alder	-12.0061
▁spinn	-12.0064
stage	-12.0065
▁dodge	-12.0066
▁inherent	-12.0068
▁facilitat	-12.0069
▁gof	-12.0074
guan	-12.0074
▁lac	-12.0074
▁karn	-12.0079
tb	-12.0083
finger	-12.0089
▁beeth	-12.009
quet	-12.009
folk	-12.0092
spring	-12.0095
original	-12.0096
▁residue	-12.0102
▁migrate	-12.0106
idel	-12.0106
▁chromosome	-12.0106
▁cooks	-12.0112
▁133	-12.0113
▁lao	-12.0114
lore	-12.0115
lese	-12.0116
▁capill	-12.0119
structure	-12.0121
▁kho	-12.0132
▁wield	-12.0134
▁oah	-12.0137
▁ador	-12.0144
kpa	-12.0147
hamp	-12.0148
▁flags	-12.0149
trench	-12.0158
reth	-12.0164
▁myce	-12.0167
ellen	-12.017
bilit	-12.0171
happ	-12.0174
▁popularis	-12.0176
mede	-12.0181
▁stripe	-12.0182
aku	-12.0188
ini	-12.019
▁regulat	-12.0191
chill	-12.0193
cane	-12.0197
▁boa	-12.0199
▁whi	-12.0199
walk	-12.0199
desir	-12.0202
▁forecast	-12.0204
mani	-12.0204
▁refin	-12.0207
▁pent	-12.0208
ouche	-12.0208
nette	-12.021
▁gia	-12.0211
▁viewer	-12.0213
▁georg	-12.0214
▁sage	-12.0223
▁aw	-12.0231
▁marty	-12.0247
▁alleg	-12.0266
▁geni	-12.0267
etta	-12.0268
corn	-12.0273
▁107	-12.0276
▁nichols	-12.0279
▁celesti	-12.0283
▁charg	-12.0284
▁freed	-12.0288
cz	-12.029
gus	-12.0292
▁statistical	-12.0318
▁excavat	-12.0319
▁packag	-12.0336
nine	-12.035
▁que	-12.0359
rdan	-12.0363
▁sant	-12.0372
amas	-12.0373
pt	-12.0373
cover	-12.0377
ella	-12.038
ise	-12.0411
itsu	-12.0418
▁oxid	-12.0419
▁compose	-12.0421
zt	-12.0422
ku	-12.0427
▁tempe	-12.043
▁surve	-12.0431
enic	-12.0446
▁invade	-12.0457
nite	-12.0458
▁imagin	-12.0466
▁rover	-12.0472
▁104	-12.0473
▁postur	-12.0479
▁resume	-12.048
▁composit	-12.0483
▁lobb	-12.0487
▁stretche	-12.0487
ua	-12.0493
thel	-12.0495
▁portal	-12.0499
uru	-12.0501
▁bosnia	-12.0502
rmo	-12.0503
rty	-12.0506
ky	-12.0508
▁comfort	-12.0508
▁shake	-12.051
▁fab	-12.0514
uras	-12.0516
▁custo	-12.0521
▁pledge	-12.0524
▁scra	-12.0525
▁montenegr	-12.0529
nati	-12.0531
▁alternat	-12.0531
pike	-12.0534
▁absor	-12.0535
▁disadvantage	-12.0536
▁humiliat	-12.0536
▁hybrid	-12.0536
▁millimetre	-12.0536
▁sawmill	-12.0536
▁staircase	-12.0536
▁thunderstorm	-12.0536
▁venezuela	-12.0536
▁abrupt	-12.0536
▁pneumo	-12.0536
▁configur	-12.0536
▁meadow	-12.0536
▁flexib	-12.0537
▁sprite	-12.0537
▁mosaic	-12.0537
▁solitar	-12.0537
▁augment	-12.0537
▁sulfur	-12.0537
▁splash	-12.0537
▁fledgling	-12.0537
▁lavish	-12.0537
▁puppeteer	-12.0537
▁cornwall	-12.0537
▁anatom	-12.0537
▁maskray	-12.0537
▁loft	-12.0537
▁fluorescen	-12.0537
▁interval	-12.0537
▁storytell	-12.0537
▁smell	-12.0537
▁luther	-12.0538
▁plaster	-12.0538
▁manifestation	-12.0538
▁stalin	-12.0538
▁franco	-12.0539
▁theorist	-12.0539
▁anthropolog	-12.0539
▁nestling	-12.0539
▁elvi	-12.0539
▁levee	-12.0539
▁jesuit	-12.0539
incin	-12.054
conclusive	-12.054
▁bestow	-12.0541
▁eminent	-12.0541
▁pew	-12.0541
▁instructor	-12.0541
▁evoke	-12.0542
▁obsession	-12.0542
▁mourn	-12.0543
had	-12.0543
▁java	-12.0544
▁referend	-12.0544
▁collid	-12.0544
emise	-12.0547
▁mantelli	-12.0549
▁pledg	-12.0549
▁julius	-12.0551
▁filmmaker	-12.0551
▁councillor	-12.0552
▁nominal	-12.0553
▁locke	-12.0553
▁pudding	-12.0553
▁inhal	-12.0555
▁instant	-12.0555
uan	-12.0555
▁totten	-12.0557
▁bitter	-12.0558
▁trom	-12.056
▁broom	-12.056
▁verbal	-12.0561
▁cuts	-12.0561
visa	-12.0561
▁disruption	-12.0564
▁improvis	-12.0564
▁mystic	-12.0565
▁gala	-12.0568
▁vau	-12.057
▁aero	-12.0574
▁intensive	-12.0577
▁downward	-12.0577
inz	-12.0578
nery	-12.0583
▁allegi	-12.0584
▁dismay	-12.0587
▁thematic	-12.0593
▁otter	-12.0594
▁kala	-12.0594
▁connecti	-12.0599
horus	-12.0612
▁fro	-12.0619
▁divinit	-12.0619
lant	-12.062
▁abusi	-12.0622
▁upward	-12.0622
▁bona	-12.0623
aro	-12.0623
▁colleg	-12.0624
▁acro	-12.0638
placement	-12.0643
▁donn	-12.0646
hinge	-12.0653
▁nir	-12.0653
kov	-12.0658
▁alam	-12.0659
▁distribute	-12.0661
▁vig	-12.0662
▁antibod	-12.0663
▁chant	-12.0665
▁lun	-12.0671
sibilit	-12.0671
▁logg	-12.0671
▁imply	-12.068
▁tea	-12.068
eur	-12.0681
▁snell	-12.0683
gamer	-12.0684
gge	-12.0702
napa	-12.0704
▁shelle	-12.0708
arta	-12.071
assl	-12.072
nois	-12.0721
fair	-12.0722
▁voic	-12.0732
cot	-12.0736
▁prophe	-12.0738
38	-12.074
erdale	-12.074
erdam	-12.074
▁compensate	-12.0746
vet	-12.0748
drop	-12.0756
▁barn	-12.0756
▁dresse	-12.0761
▁kee	-12.0776
▁fertiliz	-12.0779
▁outlin	-12.0781
semen	-12.0793
logo	-12.0794
ibar	-12.0796
sad	-12.0796
kawa	-12.0799
▁jell	-12.0812
zel	-12.0821
aja	-12.0822
▁unb	-12.0826
master	-12.0832
aig	-12.0841
▁addresse	-12.0853
▁taxa	-12.0853
eces	-12.0862
▁dominan	-12.0862
bens	-12.0863
ud	-12.088
ove	-12.0884
▁werne	-12.0886
▁bla	-12.0896
casi	-12.0906
▁blanc	-12.0915
pin	-12.0924
▁confess	-12.0927
▁croat	-12.0928
▁trim	-12.0931
nold	-12.0948
val	-12.0948
▁encompass	-12.0958
▁masse	-12.0959
▁advert	-12.0962
▁kawa	-12.0962
▁corners	-12.0963
▁ker	-12.0968
iers	-12.097
▁heath	-12.0976
auna	-12.0978
▁gall	-12.0979
sipp	-12.0981
▁reactiv	-12.0986
▁geolog	-12.0987
▁spare	-12.0995
implicit	-12.0998
umi	-12.1001
itz	-12.1006
▁dian	-12.1009
lc	-12.1017
aca	-12.1021
▁contemplat	-12.1023
kyl	-12.1029
roc	-12.1034
▁prec	-12.1045
▁premi	-12.1045
top	-12.1046
▁bend	-12.1051
▁dare	-12.1053
rek	-12.1055
▁presenter	-12.1066
▁cooperat	-12.1071
▁princip	-12.1073
ampto	-12.1076
▁unifi	-12.1082
gia	-12.1083
▁grip	-12.1085
▁glaci	-12.1091
iya	-12.1104
▁capit	-12.1114
elimina	-12.1117
▁quarte	-12.1117
bul	-12.112
minent	-12.112
▁confedera	-12.1121
▁conform	-12.1121
▁equat	-12.1122
care	-12.1122
▁rotat	-12.1122
▁recla	-12.1124
▁blank	-12.1124
▁applau	-12.1125
▁aristocra	-12.1125
▁confiscate	-12.1125
▁convincing	-12.1125
▁dhangar	-12.1125
▁ibrahim	-12.1125
▁inexperience	-12.1125
▁ingredient	-12.1125
▁merchandis	-12.1125
▁nominee	-12.1125
▁proponent	-12.1125
▁subplot	-12.1125
▁voluntar	-12.1125
▁zimmerman	-12.1125
▁virtuos	-12.1125
▁suspicion	-12.1125
▁sleeve	-12.1125
▁avatar	-12.1125
▁culver	-12.1125
▁frankfurt	-12.1125
▁exemplifie	-12.1125
▁unchang	-12.1125
▁potato	-12.1125
▁cruel	-12.1125
▁cosmetic	-12.1125
▁plural	-12.1125
▁reclaim	-12.1125
▁qualification	-12.1125
▁fleming	-12.1125
▁reinstate	-12.1125
▁spillway	-12.1125
▁compress	-12.1126
elope	-12.1126
▁ceratopsid	-12.1126
▁latitude	-12.1126
▁tsuba	-12.1126
▁ishmael	-12.1126
bharat	-12.1126
▁sandwich	-12.1126
▁cottage	-12.1126
▁girlfriend	-12.1127
ivalent	-12.1127
▁ucl	-12.1127
▁humid	-12.1127
▁galley	-12.1127
▁guang	-12.1127
ambiguous	-12.1127
▁scripture	-12.1129
▁hartle	-12.113
▁otto	-12.113
▁kitty	-12.1132
▁pigment	-12.1133
▁faint	-12.1134
▁casa	-12.1134
▁surre	-12.1136
▁synthesizer	-12.1138
sauro	-12.1139
▁gloss	-12.1139
▁scarce	-12.114
▁cleric	-12.1141
▁installment	-12.1142
▁graz	-12.1143
▁brom	-12.1143
▁flare	-12.1143
▁franciscan	-12.1145
▁conformation	-12.1145
▁fledg	-12.1147
▁adverse	-12.1148
▁910	-12.115
▁technological	-12.1151
▁distributor	-12.1152
ester	-12.1153
▁chay	-12.1153
solith	-12.1154
▁lip	-12.1154
▁armenia	-12.1155
bust	-12.1156
iel	-12.1159
▁whistle	-12.1159
▁hostage	-12.116
▁plead	-12.1165
▁emitt	-12.1168
sterl	-12.1169
▁spouse	-12.1173
▁tal	-12.1175
▁hein	-12.1185
phers	-12.1187
▁immun	-12.119
ulan	-12.1192
▁bubble	-12.1196
fume	-12.1205
▁mp	-12.1207
▁periodic	-12.1208
▁geographical	-12.121
▁fus	-12.1212
▁inquir	-12.1213
▁nurs	-12.1221
▁uni	-12.1229
rust	-12.1241
cade	-12.1242
▁approve	-12.1247
▁cruis	-12.1254
▁suck	-12.1259
▁wrestler	-12.1263
▁lance	-12.1263
void	-12.1269
▁lineage	-12.1271
ambo	-12.1279
▁hub	-12.128
▁mural	-12.1289
▁bou	-12.1291
▁fut	-12.1292
▁bena	-12.1293
anama	-12.1295
▁ascen	-12.1296
eft	-12.1307
▁clar	-12.132
tern	-12.1326
▁ira	-12.1331
▁narv	-12.1344
▁bund	-12.1345
▁denis	-12.135
▁murderer	-12.135
stract	-12.1353
chuck	-12.1358
rivi	-12.1359
strov	-12.1359
▁serializ	-12.136
ception	-12.1368
rant	-12.1374
manuel	-12.1375
▁intermedi	-12.1377
▁grande	-12.1377
finish	-12.1377
hawk	-12.1381
appropriate	-12.1383
▁dissolve	-12.1383
common	-12.1385
ultimate	-12.1386
through	-12.1388
rus	-12.1394
▁fc	-12.1404
altar	-12.1405
wild	-12.1406
▁spa	-12.1408
▁rendering	-12.1429
wine	-12.143
▁hood	-12.1433
▁utta	-12.1446
▁143	-12.146
ometr	-12.1467
olat	-12.1468
litz	-12.1468
▁mandate	-12.1471
▁frie	-12.1475
▁dissolv	-12.1481
iation	-12.1484
▁nominate	-12.1486
▁amn	-12.1489
oll	-12.1496
fight	-12.151
▁chuck	-12.1511
▁128	-12.1531
▁moralit	-12.1537
▁obscure	-12.1547
▁chat	-12.1556
path	-12.156
titude	-12.1564
uk	-12.1564
bank	-12.1565
ird	-12.1569
▁overcom	-12.1572
▁hano	-12.1572
mate	-12.1575
▁hod	-12.1577
kind	-12.1577
ographic	-12.1581
▁fog	-12.1582
ollo	-12.1584
aviv	-12.1591
rapper	-12.1603
▁camero	-12.1611
▁freeze	-12.1612
▁bout	-12.1612
cia	-12.1613
▁imag	-12.1614
▁realise	-12.1616
▁motoris	-12.1624
▁burg	-12.1627
▁elector	-12.1628
▁str	-12.163
▁bern	-12.1631
krat	-12.1633
▁owe	-12.1643
▁kor	-12.1643
▁furni	-12.1655
▁hyp	-12.1657
▁reconcil	-12.166
▁reliabl	-12.1669
▁cort	-12.1674
▁nr	-12.1677
obb	-12.1678
lvin	-12.168
eum	-12.1684
genit	-12.1684
▁sau	-12.1688
▁afr	-12.169
▁overt	-12.1698
▁vertebra	-12.1705
bec	-12.1705
▁arche	-12.1707
ik	-12.1712
▁commend	-12.1716
▁chai	-12.1716
release	-12.1716
▁priv	-12.1718
▁suf	-12.1724
fu	-12.1726
▁poe	-12.1735
▁larg	-12.1735
▁sentenc	-12.1737
▁pur	-12.1739
terrestrial	-12.1746
▁accura	-12.1747
▁governors	-12.1748
▁tob	-12.1749
▁articulate	-12.175
▁deplet	-12.175
▁discretion	-12.175
▁ethiopia	-12.175
▁floodplain	-12.175
▁mitochondria	-12.175
▁pamphlet	-12.175
▁penguin	-12.175
▁procure	-12.175
▁ptolem	-12.175
▁splinter	-12.175
▁subfamil	-12.175
▁vulgar	-12.175
▁solicit	-12.175
spisevognselskap	-12.175
▁contaminat	-12.175
▁guerre	-12.175
▁screw	-12.175
▁classify	-12.175
▁discourage	-12.175
▁hadrosaurid	-12.175
▁lounge	-12.175
▁bulb	-12.175
▁transept	-12.175
▁discern	-12.175
▁dentist	-12.175
▁apologize	-12.175
▁enclosure	-12.175
▁cartridge	-12.175
▁shatter	-12.1751
▁allusion	-12.1751
▁embroi	-12.1751
▁copyright	-12.1751
▁truncat	-12.1751
▁worcester	-12.1751
▁lambeosaurine	-12.1751
▁ridiculous	-12.1751
▁vegetable	-12.1751
▁mercenar	-12.1752
▁vow	-12.1752
resisti	-12.1752
▁haul	-12.1752
▁catalogue	-12.1752
▁implication	-12.1752
▁autonomous	-12.1752
▁sensor	-12.1752
▁maclag	-12.1753
▁veto	-12.1753
▁click	-12.1753
▁feasib	-12.1753
▁pageant	-12.1754
shrink	-12.1754
▁orientation	-12.1755
▁kalyan	-12.1756
▁boliv	-12.1757
▁lanka	-12.1757
▁quotation	-12.1757
▁heredit	-12.1758
▁altitude	-12.1758
▁prescribe	-12.1758
▁attest	-12.1759
▁desk	-12.176
▁comput	-12.176
rought	-12.1761
▁wagon	-12.1762
▁martyr	-12.1762
▁maids	-12.1763
handler	-12.1763
▁radiat	-12.1763
restig	-12.1763
▁abdom	-12.1767
▁contradiction	-12.1767
▁coil	-12.1768
▁amend	-12.1769
▁broadside	-12.177
ergar	-12.1772
owitz	-12.1772
▁1660	-12.1774
▁clever	-12.1776
▁specialis	-12.1777
▁naya	-12.1781
▁priva	-12.1782
rfu	-12.1782
▁iceland	-12.1785
ikh	-12.1785
▁encod	-12.1787
▁mara	-12.1794
nach	-12.1794
▁volt	-12.1799
▁graci	-12.1801
▁edwin	-12.1802
▁worm	-12.1806
agon	-12.1807
▁minus	-12.1809
▁patern	-12.1813
▁penetrate	-12.1814
▁hale	-12.1815
▁worsen	-12.1815
▁vanish	-12.182
▁morocc	-12.1822
irb	-12.1824
uke	-12.1824
▁revert	-12.1826
ew	-12.1827
▁pill	-12.183
▁bin	-12.1832
▁hartman	-12.1836
satisfactor	-12.1838
▁biolog	-12.184
▁reconcile	-12.1841
▁kinne	-12.1845
xis	-12.1846
▁adviser	-12.1848
▁rig	-12.1862
uzzle	-12.1863
rovers	-12.1874
▁lobby	-12.1883
surgenc	-12.1886
wap	-12.1887
vier	-12.189
capa	-12.1895
nta	-12.1897
▁virgi	-12.1904
ér	-12.1905
▁babylonia	-12.1908
ensa	-12.1909
▁aaa	-12.1912
▁lust	-12.1914
▁accessib	-12.1916
▁rulers	-12.1917
▁resid	-12.1923
cus	-12.1924
▁toro	-12.1924
▁mud	-12.1932
▁acc	-12.1935
▁advise	-12.1937
▁oppose	-12.1942
▁rushe	-12.1955
▁obscur	-12.1957
▁decent	-12.196
▁menu	-12.196
▁feminin	-12.1963
▁casua	-12.197
iest	-12.1972
rqu	-12.1974
ink	-12.1985
▁fram	-12.199
dole	-12.1993
▁prop	-12.1993
▁financ	-12.1997
▁nic	-12.1997
▁dive	-12.2001
▁patrioti	-12.2007
▁denounc	-12.2009
▁analyst	-12.2012
▁intro	-12.2022
▁marginal	-12.2027
▁lean	-12.2033
▁royalt	-12.2039
akur	-12.2052
▁styl	-12.2054
▁gibb	-12.2057
▁robbi	-12.2065
▁claud	-12.2075
▁citation	-12.2076
▁pluto	-12.208
limb	-12.2081
adequate	-12.2086
lamp	-12.209
▁vida	-12.2092
▁tab	-12.2092
▁harv	-12.2095
span	-12.2096
▁134	-12.2097
▁genero	-12.2098
aving	-12.2098
supply	-12.2099
piece	-12.21
affect	-12.21
woman	-12.2101
▁employer	-12.2102
▁157	-12.2103
normal	-12.2104
▁projection	-12.2111
horn	-12.2116
▁wadi	-12.2124
▁substitut	-12.2145
▁triangula	-12.2145
▁appreciate	-12.2146
baden	-12.216
roque	-12.2161
▁nicola	-12.2162
pc	-12.2166
nato	-12.2166
▁mani	-12.2166
▁159	-12.2171
000	-12.2172
▁sergi	-12.2184
▁proph	-12.2186
▁infest	-12.2191
sel	-12.2194
▁femini	-12.2197
▁provoke	-12.2197
▁rib	-12.2205
▁mackina	-12.2213
▁buddh	-12.2216
▁monda	-12.2229
▁peri	-12.2235
iett	-12.2237
anche	-12.2241
▁willi	-12.226
nike	-12.2266
bee	-12.2268
▁202	-12.2279
opy	-12.2282
deci	-12.2282
▁archa	-12.2293
▁manipulate	-12.23
▁choos	-12.23
como	-12.2301
▁mongol	-12.2303
▁epi	-12.2305
▁shy	-12.2309
▁showcase	-12.231
polis	-12.232
▁wir	-12.232
dp	-12.2324
ncos	-12.2327
callist	-12.2327
▁liberat	-12.2328
aya	-12.2329
▁bridg	-12.233
▁kon	-12.2346
▁ordina	-12.2353
▁presiden	-12.2356
▁hur	-12.2357
▁ordinat	-12.2359
▁justifi	-12.2362
▁lett	-12.2363
punct	-12.2363
▁canne	-12.237
▁clinic	-12.237
▁worthing	-12.2371
▁coul	-12.2375
▁clare	-12.2376
▁outline	-12.2377
ips	-12.2379
ulous	-12.2386
▁vacan	-12.2386
▁nut	-12.2386
▁enthusias	-12.2386
cumm	-12.2389
▁efficien	-12.239
▁profession	-12.2392
▁accumulate	-12.2396
▁conc	-12.2402
▁disast	-12.2404
▁snap	-12.2411
▁reunite	-12.2412
▁kre	-12.2413
▁conscript	-12.2416
▁peripher	-12.2416
▁apprentice	-12.2416
▁clinch	-12.2416
▁constituent	-12.2416
▁coyote	-12.2416
▁despatche	-12.2416
▁disgust	-12.2416
▁ectomycorrhiza	-12.2416
▁egyptologist	-12.2416
▁extravagan	-12.2416
▁fracture	-12.2416
▁grenade	-12.2416
▁magistrate	-12.2416
▁messenger	-12.2416
▁miracle	-12.2416
▁paratrooper	-12.2416
▁plagiari	-12.2416
▁precinct	-12.2416
▁quarterfinal	-12.2416
▁reproduce	-12.2416
▁scientologist	-12.2416
▁sihanouk	-12.2416
▁typewriter	-12.2416
▁anatolia	-12.2416
▁cinematograph	-12.2416
▁hierarch	-12.2416
▁persecut	-12.2416
▁registr	-12.2416
▁transplant	-12.2416
▁crater	-12.2416
▁idyll	-12.2416
▁overthrow	-12.2416
▁psyche	-12.2416
▁psychi	-12.2416
▁cytogenetic	-12.2416
▁landslide	-12.2416
▁regret	-12.2416
▁apocalyp	-12.2416
▁turtle	-12.2416
▁reorganis	-12.2416
▁transcribe	-12.2416
▁mysore	-12.2417
▁gesture	-12.2417
▁jamaica	-12.2417
▁firecr	-12.2417
▁warehouse	-12.2417
▁crass	-12.2417
▁subtype	-12.2417
▁glu	-12.2417
▁froze	-12.2417
▁cavit	-12.2417
ankle	-12.2418
▁classmate	-12.2418
▁sociologist	-12.2418
▁kamala	-12.2418
▁urgent	-12.2418
▁pillar	-12.2418
opter	-12.2418
▁paradi	-12.2419
▁torso	-12.2419
▁adolescen	-12.242
▁potter	-12.242
▁equator	-12.242
▁submission	-12.242
▁computation	-12.2421
▁exert	-12.2421
▁maje	-12.2421
▁hetero	-12.2421
uma	-12.2422
▁inevitabl	-12.2422
ppl	-12.2422
▁vacation	-12.2423
▁renumber	-12.2423
ishna	-12.2425
▁scarlet	-12.2425
▁curtai	-12.2425
▁appal	-12.2425
tate	-12.243
▁passport	-12.2431
olia	-12.2433
▁motivation	-12.2433
▁invok	-12.2434
▁subgen	-12.2434
▁erod	-12.2435
▁kress	-12.2436
▁cylinder	-12.2436
itul	-12.2439
▁eduard	-12.2441
▁milestone	-12.2441
iograph	-12.2441
▁gamma	-12.2442
ctari	-12.2442
▁versa	-12.2442
gyak	-12.2443
▁coward	-12.2443
cybe	-12.2444
▁gallon	-12.2446
▁northumbria	-12.2448
▁oriental	-12.2449
▁vai	-12.245
▁skeptic	-12.245
▁bour	-12.2451
▁stunning	-12.2455
▁steff	-12.2457
▁cons	-12.2459
▁equalise	-12.246
quois	-12.2464
▁rao	-12.2464
▁glow	-12.2469
▁bahr	-12.2474
zzar	-12.2476
▁gpu	-12.2479
▁replicate	-12.2486
▁mod	-12.2488
xx	-12.249
▁analyse	-12.2492
▁spu	-12.2492
▁moors	-12.2494
▁gener	-12.2497
▁comp	-12.2498
▁nata	-12.2499
▁aesthetic	-12.2502
▁carn	-12.2505
phan	-12.251
▁chur	-12.2518
balla	-12.253
▁wool	-12.2532
net	-12.2535
huff	-12.2537
▁creed	-12.2538
▁contin	-12.2542
▁brahma	-12.255
▁herb	-12.2553
▁striv	-12.2554
llier	-12.2562
ran	-12.2568
▁rak	-12.2572
▁laure	-12.2573
icea	-12.2575
genes	-12.2577
elong	-12.2577
▁spir	-12.258
▁proportional	-12.2587
▁venerat	-12.2591
▁tsun	-12.2598
▁arra	-12.2599
▁fence	-12.2603
bes	-12.2609
▁jewell	-12.2615
kay	-12.2619
openha	-12.262
▁combatant	-12.262
▁fli	-12.262
▁crust	-12.2622
lund	-12.2623
tones	-12.2624
rades	-12.2626
▁cop	-12.2638
▁hutch	-12.264
car	-12.265
▁cle	-12.2675
▁agr	-12.2681
▁communicate	-12.2683
▁photos	-12.2684
▁speckle	-12.2692
▁clarifi	-12.2705
▁glo	-12.2705
▁subtl	-12.2706
▁pie	-12.2708
▁nil	-12.2716
▁kaj	-12.2724
▁revolv	-12.2735
▁denot	-12.2738
▁119	-12.2738
▁pierc	-12.274
▁shawn	-12.2741
▁mick	-12.2742
▁repris	-12.2744
▁robe	-12.2746
▁enforc	-12.276
tz	-12.2765
▁bayer	-12.2766
position	-12.2766
▁ki	-12.2775
▁bounc	-12.278
parte	-12.2787
runner	-12.2794
▁comb	-12.2797
▁garr	-12.2799
riu	-12.2806
▁initiate	-12.2808
▁pand	-12.281
born	-12.2815
▁lex	-12.2821
pm	-12.2824
▁differentiate	-12.2825
grove	-12.2831
mala	-12.2836
▁mccar	-12.2838
mind	-12.2849
literate	-12.2852
▁fraction	-12.2853
anxi	-12.2861
▁alloy	-12.2861
break	-12.2862
lent	-12.2866
publish	-12.2866
develop	-12.2867
effective	-12.2869
kau	-12.287
accept	-12.287
▁thorn	-12.2872
▁levi	-12.288
▁jeffr	-12.2881
▁presid	-12.2881
▁mobil	-12.2885
rock	-12.2886
amps	-12.2887
nau	-12.289
▁inlet	-12.2893
hope	-12.2893
ault	-12.2901
upper	-12.2905
iable	-12.2908
▁lon	-12.2913
▁terri	-12.292
▁refiner	-12.2924
rugg	-12.2929
oncos	-12.2933
aragua	-12.2936
rmed	-12.2937
unsee	-12.2941
▁pl	-12.2943
▁freez	-12.2954
▁masa	-12.2955
▁athen	-12.2959
▁amy	-12.2961
▁aber	-12.2966
awi	-12.2969
▁favourabl	-12.2969
▁cry	-12.297
rner	-12.2974
▁stud	-12.2976
▁hum	-12.2977
kies	-12.2978
tar	-12.2987
opho	-12.2993
aking	-12.3006
▁sphere	-12.3009
rawling	-12.3028
puls	-12.3029
torial	-12.3036
▁hym	-12.3041
▁gal	-12.3042
▁bal	-12.3046
▁squat	-12.3049
▁incidental	-12.306
▁nazis	-12.3067
▁chee	-12.3068
ju	-12.3081
▁xin	-12.3081
▁progresse	-12.3083
▁glid	-12.3098
▁deacon	-12.31
▁aggregat	-12.3103
fish	-12.3106
▁cai	-12.3108
uri	-12.3117
▁reuse	-12.312
▁kav	-12.3121
lage	-12.3121
▁wolve	-12.3122
▁reproducti	-12.3123
▁pok	-12.3123
eater	-12.3125
cub	-12.3125
▁inhibit	-12.3125
ador	-12.3126
lihood	-12.3128
▁nitr	-12.313
thumb	-12.313
▁arbitra	-12.3131
▁gloucester	-12.3131
▁quadrup	-12.3131
▁reggae	-12.3131
▁constellation	-12.3131
▁erroneous	-12.3131
▁improper	-12.3131
▁intermittent	-12.3131
▁landowner	-12.3131
▁outflank	-12.3131
▁precursor	-12.3131
▁redoubt	-12.3131
▁refurbish	-12.3131
▁segregat	-12.3131
▁spruce	-12.3131
▁vizier	-12.3131
▁dharm	-12.3131
▁enlighten	-12.3131
▁goalscor	-12.3131
hinke	-12.3131
▁illusion	-12.3131
▁tentative	-12.3131
▁signify	-12.3131
▁flavor	-12.3131
▁melodrama	-12.3131
▁necklace	-12.3131
▁frill	-12.3131
▁behave	-12.3131
▁friar	-12.3131
▁microlight	-12.3131
▁selenite	-12.3132
▁masterpiece	-12.3132
▁recycl	-12.3132
▁caution	-12.3132
▁creep	-12.3132
▁reuter	-12.3132
ricate	-12.3132
▁resent	-12.3133
▁flourish	-12.3133
▁shortlist	-12.3133
▁mead	-12.3133
▁chlori	-12.3133
▁liberator	-12.3134
ricula	-12.3134
maine	-12.3134
▁tick	-12.3135
▁volley	-12.3135
seldo	-12.3135
ntial	-12.3135
▁darling	-12.3135
▁incense	-12.3135
▁screenwriter	-12.3136
▁nickel	-12.3136
nsb	-12.3136
▁rubin	-12.3136
▁rehearsal	-12.3137
turmo	-12.3137
▁volcano	-12.3137
potent	-12.3139
phili	-12.3139
▁adil	-12.3139
▁bhai	-12.3139
▁210	-12.3139
▁contraceptive	-12.3141
▁thriv	-12.3141
dwig	-12.3142
▁newborn	-12.3142
▁hopeful	-12.3142
▁collaborator	-12.3142
▁preparat	-12.3143
▁jovi	-12.3143
▁spout	-12.3143
ernst	-12.3144
▁overlapp	-12.3144
ciation	-12.3145
▁inspection	-12.3146
▁1770	-12.3146
roe	-12.3146
works	-12.3147
▁piston	-12.3148
▁marqu	-12.3148
éti	-12.3151
▁robber	-12.3153
▁aggress	-12.3153
▁cosm	-12.3154
▁amazon	-12.3154
▁emit	-12.3155
▁hunger	-12.3155
nile	-12.3157
▁detector	-12.3157
tirp	-12.316
▁restless	-12.3165
puri	-12.3172
▁setback	-12.3173
colm	-12.3173
▁steeple	-12.3177
▁impli	-12.3177
darpa	-12.3177
▁sou	-12.3179
▁nymph	-12.318
▁regen	-12.3183
dore	-12.3185
urnal	-12.3187
▁johannes	-12.3191
▁worry	-12.3191
mire	-12.3194
▁lear	-12.3197
anti	-12.3199
▁regulator	-12.3201
▁mudd	-12.3204
▁publicize	-12.3205
rath	-12.3205
mascu	-12.3206
▁contractor	-12.3208
nik	-12.3215
vatic	-12.3222
tche	-12.3225
scot	-12.3229
▁galla	-12.3231
▁outward	-12.3236
▁stemm	-12.3238
▁alma	-12.3241
athed	-12.3241
lepi	-12.3242
▁pac	-12.3243
▁jewelle	-12.3245
nath	-12.3255
timor	-12.3257
hief	-12.327
gau	-12.3273
▁serialis	-12.3274
ovi	-12.3276
uta	-12.3276
gale	-12.328
dike	-12.328
ulat	-12.3284
▁astro	-12.3287
hilo	-12.3289
▁mcco	-12.329
▁cin	-12.329
gland	-12.3296
▁kita	-12.3299
▁raft	-12.33
fc	-12.3304
ition	-12.3308
homa	-12.3318
▁fu	-12.3319
orda	-12.3321
▁accessor	-12.3326
▁agust	-12.3328
audi	-12.3328
▁utilize	-12.333
bé	-12.3333
▁simm	-12.3344
pres	-12.3348
istress	-12.335
▁flan	-12.3359
▁lateral	-12.3361
vin	-12.3366
▁gavin	-12.337
▁xeo	-12.3372
▁interfere	-12.3373
ashi	-12.3377
▁procession	-12.3377
ach	-12.3381
pert	-12.3389
fix	-12.3397
▁lans	-12.3399
▁peru	-12.3412
▁emptie	-12.3412
elbac	-12.3412
mary	-12.3415
▁package	-12.3424
stop	-12.3429
▁lind	-12.3432
▁muster	-12.3433
cca	-12.3439
ridge	-12.3444
▁franc	-12.3444
▁stereotype	-12.3451
mble	-12.3454
weig	-12.3459
▁activate	-12.3478
▁holder	-12.3497
▁lae	-12.3497
▁sear	-12.3504
▁macke	-12.3519
raged	-12.3522
▁assemble	-12.3523
rop	-12.3525
anor	-12.3526
direct	-12.3526
hemica	-12.3528
rett	-12.3532
type	-12.3538
▁denote	-12.354
yang	-12.3541
▁kelle	-12.3553
pple	-12.3558
▁popul	-12.3569
▁tw	-12.357
▁degenerate	-12.3571
▁142	-12.3571
sign	-12.3577
▁argo	-12.3578
▁communicat	-12.359
rator	-12.359
▁burge	-12.3593
unning	-12.3593
▁tuf	-12.3595
▁criticize	-12.3598
erie	-12.3601
▁atkin	-12.3605
bane	-12.3608
gm	-12.3611
mca	-12.3613
moor	-12.3619
pras	-12.3621
▁accelerate	-12.3627
▁repelle	-12.3628
▁embrac	-12.363
bodie	-12.3652
▁iodi	-12.3653
cola	-12.3657
mps	-12.3657
structur	-12.3662
▁prom	-12.3665
▁mounting	-12.3666
lateral	-12.367
verne	-12.3675
lia	-12.3677
dragon	-12.3688
dish	-12.3697
eparation	-12.3698
memorial	-12.3701
zak	-12.3702
court	-12.3703
africa	-12.3703
accessib	-12.3706
▁evolve	-12.3714
ppe	-12.3714
paul	-12.3717
phobi	-12.3722
▁clad	-12.3724
▁nico	-12.3726
pine	-12.3738
▁205	-12.3741
van	-12.3743
▁mithra	-12.3743
kan	-12.375
tec	-12.3761
merse	-12.3762
pau	-12.3764
▁petro	-12.3767
▁halle	-12.3771
hold	-12.379
saka	-12.3799
ops	-12.3806
▁emer	-12.3807
raine	-12.3811
▁traf	-12.3813
pposed	-12.3815
cell	-12.3823
gli	-12.3831
▁strach	-12.3833
▁debat	-12.3837
▁oz	-12.3842
▁zen	-12.3852
vapor	-12.3865
uman	-12.3866
▁shutt	-12.3869
▁nik	-12.3874
rogat	-12.3875
▁cylind	-12.3877
nares	-12.388
▁revive	-12.3888
tzpa	-12.389
▁exam	-12.3895
lim	-12.3895
ufo	-12.3899
▁justif	-12.3899
▁excommunicat	-12.39
▁rendezvous	-12.39
▁revamp	-12.39
▁scuttl	-12.39
elecommunication	-12.39
▁astronaut	-12.39
▁caricature	-12.39
▁cladogram	-12.39
▁commute	-12.39
▁disembark	-12.39
▁inconsistenc	-12.39
▁microphone	-12.39
▁nightclub	-12.39
▁premature	-12.39
▁unpredictab	-12.39
▁amusement	-12.39
▁coffin	-12.39
▁defect	-12.39
▁pencil	-12.39
▁thunder	-12.39
wrink	-12.39
▁undefe	-12.39
▁hectare	-12.39
▁saddle	-12.39
▁undertaking	-12.39
▁sabre	-12.39
▁antelope	-12.39
wych	-12.39
▁polytheis	-12.39
cendi	-12.39
▁apostoli	-12.39
▁ribbon	-12.39
▁evangeli	-12.39
▁leisure	-12.39
▁polygamist	-12.39
▁boycott	-12.39
▁promiscu	-12.39
▁craw	-12.39
▁cohesi	-12.3901
▁acquaintance	-12.3901
▁dialect	-12.3901
▁propulsi	-12.3901
▁sloven	-12.3901
▁ninja	-12.3901
▁geologist	-12.3901
▁peasant	-12.3901
▁tiber	-12.3901
▁sacrament	-12.3901
▁stephan	-12.3901
dience	-12.3902
▁benign	-12.3902
▁converge	-12.3902
▁gonzale	-12.3902
▁toilet	-12.3902
▁reservation	-12.3902
▁griev	-12.3902
nclave	-12.3902
▁fundamentalist	-12.3903
▁viper	-12.3903
▁referenc	-12.3903
▁filter	-12.3903
▁detract	-12.3903
visor	-12.3904
▁flemi	-12.3904
▁contestant	-12.3904
▁stirr	-12.3904
vant	-12.3904
voy	-12.3905
adys	-12.3905
▁stegosaurid	-12.3905
▁bolster	-12.3906
▁deut	-12.3907
▁molt	-12.3908
eek	-12.3908
▁systematic	-12.3909
rge	-12.3909
▁montenegrin	-12.391
▁epidemi	-12.391
urname	-12.3912
▁turnover	-12.3913
▁orphan	-12.3915
▁populariz	-12.3915
▁preacher	-12.3918
▁santo	-12.3919
ovation	-12.3919
nacle	-12.3919
▁violin	-12.3919
angz	-12.392
▁ott	-12.3921
▁husse	-12.3922
▁nebul	-12.3923
▁ramo	-12.3924
▁hyper	-12.3926
▁ponder	-12.3927
▁aqua	-12.3927
▁watche	-12.3927
▁disk	-12.393
ilke	-12.393
▁elk	-12.3932
▁sparta	-12.3938
airway	-12.3938
▁hono	-12.3939
maze	-12.3943
▁marco	-12.3944
▁duma	-12.3945
▁litigat	-12.3949
gio	-12.395
▁dune	-12.395
▁grind	-12.3952
▁terrif	-12.3953
▁casin	-12.3954
▁suzu	-12.3956
cuse	-12.3959
▁mash	-12.3961
▁overrun	-12.3963
▁allegor	-12.3963
▁vick	-12.3966
gers	-12.3969
▁marcell	-12.3974
▁stimulate	-12.3975
▁lucia	-12.3977
doubted	-12.3978
lich	-12.3979
▁716	-12.3983
▁unpa	-12.3989
▁blessing	-12.3989
▁farr	-12.399
hook	-12.399
▁nucleol	-12.399
▁smil	-12.3993
▁bench	-12.3998
icious	-12.3998
▁buchan	-12.4
▁admirer	-12.4005
scape	-12.4008
vall	-12.401
nk	-12.4012
taff	-12.4016
▁barra	-12.4021
▁fr	-12.4023
athl	-12.4024
▁definiti	-12.4026
umour	-12.4027
▁plume	-12.4029
▁taper	-12.4029
emal	-12.4031
▁waldo	-12.4038
▁inflat	-12.4041
elic	-12.4042
ump	-12.4045
▁petri	-12.4046
▁conspi	-12.4059
▁economical	-12.4064
verness	-12.4069
▁contracepti	-12.407
▁spo	-12.407
▁uday	-12.4071
eep	-12.4074
▁bori	-12.4075
▁xv	-12.4081
▁symbolis	-12.4084
▁mule	-12.409
▁foli	-12.4091
▁herbivore	-12.4094
tman	-12.4102
ayana	-12.4103
dinan	-12.4109
▁nitro	-12.4114
▁trainer	-12.4114
▁bik	-12.4116
▁shand	-12.4121
▁rhe	-12.4122
▁tac	-12.4129
▁traveller	-12.4131
nial	-12.4132
▁ribosome	-12.4141
▁reso	-12.4151
▁revolve	-12.4154
▁russ	-12.4156
▁alek	-12.4156
haba	-12.4158
peat	-12.4165
▁dose	-12.4185
dirk	-12.4191
▁phenomena	-12.4197
▁shower	-12.42
▁kissing	-12.42
oax	-12.4201
ulation	-12.4203
▁slit	-12.4207
llon	-12.4223
▁metaboli	-12.4228
▁specifi	-12.4232
▁rena	-12.4236
aff	-12.4236
▁shank	-12.4239
▁plea	-12.4241
shave	-12.4243
▁subsid	-12.4248
derland	-12.4253
nez	-12.4253
▁mediate	-12.4259
▁dogge	-12.4269
fus	-12.4273
▁mana	-12.4281
dah	-12.4284
▁tata	-12.4286
▁marle	-12.429
▁lever	-12.4294
ott	-12.4295
▁attende	-12.4295
gras	-12.4295
fford	-12.4299
▁stylist	-12.4302
▁dominic	-12.4304
▁grove	-12.4305
ode	-12.431
urti	-12.4311
▁bate	-12.4325
▁anxi	-12.4326
▁recur	-12.4327
▁tyn	-12.433
polit	-12.433
mail	-12.4335
▁novo	-12.4337
adi	-12.4339
▁148	-12.4339
▁dow	-12.4342
apse	-12.4351
ety	-12.4352
▁bm	-12.4359
aak	-12.4361
▁tun	-12.4365
▁discus	-12.4365
▁machi	-12.4366
▁mb	-12.4374
npr	-12.438
lorn	-12.4383
aron	-12.4388
▁plent	-12.4392
▁alg	-12.4414
imeter	-12.4419
▁rabbi	-12.4425
▁reprise	-12.4432
▁dela	-12.4434
▁explod	-12.4437
▁instinct	-12.4438
enberg	-12.4439
form	-12.4441
olf	-12.4442
rical	-12.4445
▁scrub	-12.4446
▁mimic	-12.4458
tamia	-12.4462
▁wig	-12.4475
▁ahm	-12.4482
▁gm	-12.4483
semiti	-12.4484
▁vent	-12.4492
lica	-12.4493
nton	-12.4493
▁intrigu	-12.4498
▁delu	-12.4503
▁stu	-12.4509
robe	-12.4512
▁dependenc	-12.4516
constitut	-12.4534
front	-12.454
▁vern	-12.4546
▁fé	-12.4553
▁myceli	-12.4554
elano	-12.4564
qualifi	-12.4564
intend	-12.4568
ree	-12.4574
issan	-12.4574
▁bud	-12.4574
bias	-12.4576
tire	-12.4579
steven	-12.458
▁offend	-12.4599
▁tyr	-12.4601
wheel	-12.4602
valid	-12.4603
▁appar	-12.4604
pop	-12.4607
version	-12.4607
▁minerv	-12.4607
consistent	-12.4608
plus	-12.4609
connect	-12.4612
lam	-12.4613
fleet	-12.4613
chemical	-12.4613
grow	-12.4614
film	-12.4614
zam	-12.4616
▁refine	-12.4618
allah	-12.4623
kong	-12.4626
ganga	-12.4627
▁gel	-12.4627
dra	-12.4628
▁carolin	-12.463
▁unico	-12.4634
▁colt	-12.4642
made	-12.4644
▁geographic	-12.4645
ectar	-12.4647
ender	-12.4651
manches	-12.4652
▁consul	-12.4654
▁rum	-12.4654
easa	-12.4655
▁sca	-12.4656
▁tryp	-12.4657
▁automat	-12.4663
gassi	-12.4665
ogen	-12.4672
cona	-12.468
libr	-12.4691
▁implie	-12.4692
plic	-12.4695
▁avia	-12.4697
▁pall	-12.4698
▁purit	-12.4699
▁digit	-12.47
affir	-12.47
▁dodg	-12.4705
oul	-12.4705
udders	-12.4708
nab	-12.4713
ilto	-12.4717
▁cyclo	-12.4719
athan	-12.4721
▁infiltrate	-12.4722
▁subord	-12.4723
▁erupt	-12.4723
▁hypothe	-12.4723
vinci	-12.4724
▁equi	-12.4726
generation	-12.4728
patric	-12.4728
▁facto	-12.4728
▁dictat	-12.4731
step	-12.4733
▁deprecati	-12.4733
▁disillusion	-12.4733
▁overshadow	-12.4733
▁rediscover	-12.4733
▁dissatisf	-12.4733
▁forfeit	-12.4733
▁beaufighter	-12.4733
▁catastroph	-12.4733
▁disgrace	-12.4733
▁lanthanide	-12.4733
▁miniature	-12.4733
▁monologue	-12.4733
▁paradox	-12.4733
▁peptide	-12.4733
▁predominate	-12.4733
▁suffrage	-12.4733
▁indulge	-12.4733
▁kaufman	-12.4733
▁mislead	-12.4733
▁cistern	-12.4733
▁pedestrian	-12.4733
drome	-12.4733
▁affiliation	-12.4733
▁bayonet	-12.4733
▁utilis	-12.4733
▁impersonati	-12.4733
▁eradicat	-12.4733
▁transaction	-12.4733
▁indenture	-12.4733
▁linebacker	-12.4733
▁cautious	-12.4733
▁enriqu	-12.4733
▁frighten	-12.4733
▁protoceratops	-12.4733
▁gcse	-12.4733
▁immers	-12.4733
venir	-12.4733
▁handwrit	-12.4733
▁mechaniz	-12.4733
▁minigame	-12.4733
▁luxur	-12.4733
▁ceramic	-12.4734
vigat	-12.4734
▁applicant	-12.4734
édér	-12.4734
▁tilt	-12.4734
▁heartbreak	-12.4734
▁rewrit	-12.4734
▁intruder	-12.4734
▁euph	-12.4734
▁undermine	-12.4735
▁bengal	-12.4735
rml	-12.4735
▁omni	-12.4735
▁simulator	-12.4736
tirtha	-12.4736
▁quarry	-12.4736
▁asthma	-12.4736
▁gaul	-12.4737
▁relent	-12.4738
▁craftsman	-12.4738
▁magnate	-12.4738
▁overpass	-12.4738
▁muang	-12.4738
▁oars	-12.4739
demn	-12.4739
▁razor	-12.474
culin	-12.474
▁uphold	-12.4741
aba	-12.4742
▁repulse	-12.4742
▁nubia	-12.4743
▁vira	-12.4743
brittle	-12.4743
bourg	-12.4743
▁pont	-12.4743
▁infiltrat	-12.4744
▁strick	-12.4745
▁tsar	-12.4746
▁emission	-12.4746
▁pesca	-12.4746
ongregationalist	-12.4746
igma	-12.4746
▁animator	-12.4748
▁sple	-12.4748
▁murchad	-12.4749
▁tjo	-12.4749
▁salon	-12.475
pro	-12.4751
▁investigator	-12.4751
osov	-12.4752
▁fuller	-12.4752
▁flip	-12.4754
▁guess	-12.4754
anjeev	-12.4755
▁benz	-12.4756
assic	-12.4757
▁hacker	-12.4759
kward	-12.4761
▁claimant	-12.4762
▁centi	-12.4762
cepti	-12.4763
deroga	-12.4767
▁cheat	-12.4772
capabl	-12.4772
▁zionis	-12.4772
dyne	-12.4774
▁fuck	-12.4775
▁spectroscop	-12.4779
▁contributor	-12.4782
▁glacier	-12.4782
▁roth	-12.4782
ora	-12.4786
▁squa	-12.4786
tiful	-12.4788
▁offence	-12.4789
▁augustin	-12.4789
▁rodr	-12.4791
▁clue	-12.4792
spur	-12.4793
huan	-12.4796
▁chul	-12.48
▁duel	-12.4802
aac	-12.4802
uga	-12.4803
▁spurr	-12.4806
arctic	-12.4808
jm	-12.4808
▁swimmer	-12.4809
riker	-12.4811
▁kama	-12.4814
▁curse	-12.4815
▁clause	-12.4817
▁guti	-12.482
▁supplier	-12.4822
▁centimeter	-12.4823
▁navigat	-12.4823
▁tort	-12.4824
ulam	-12.4825
emia	-12.4827
▁hasti	-12.4828
pen	-12.4831
▁ferre	-12.4831
arcelo	-12.4833
▁laps	-12.4835
adri	-12.484
▁brow	-12.484
▁dart	-12.4842
▁playground	-12.4843
lett	-12.4843
opulation	-12.4845
▁senna	-12.4847
nwa	-12.4848
▁hob	-12.4851
▁centr	-12.4852
esel	-12.4855
▁palest	-12.4857
agnes	-12.486
▁erra	-12.4862
▁continual	-12.4871
lick	-12.4874
tte	-12.4878
▁gros	-12.4881
upri	-12.4886
ragg	-12.489
▁fibre	-12.4893
▁eclipse	-12.4893
▁kess	-12.4896
syrian	-12.49
rington	-12.4902
roupe	-12.4903
▁mess	-12.4906
arne	-12.4907
▁expend	-12.4907
▁trott	-12.4912
▁lonel	-12.4913
▁monast	-12.492
▁soma	-12.4927
weller	-12.4932
▁moll	-12.4933
mania	-12.4936
olera	-12.4938
ét	-12.4939
▁alexandr	-12.495
▁trawl	-12.4951
▁cardi	-12.4951
▁fabric	-12.4952
otype	-12.4952
▁wilt	-12.4958
▁hospitaliz	-12.4964
▁sayi	-12.4966
tom	-12.497
▁bohem	-12.4971
▁mcgu	-12.4977
▁ob	-12.4977
▁originate	-12.498
▁wav	-12.4985
cat	-12.4987
▁vale	-12.4995
▁impose	-12.5
▁coll	-12.5007
▁florenc	-12.5012
spoke	-12.5018
▁stip	-12.5021
idt	-12.503
▁rational	-12.5034
▁emmet	-12.5035
▁treati	-12.5039
▁repel	-12.5042
bei	-12.5047
▁brush	-12.5048
ache	-12.505
▁dil	-12.5052
▁gild	-12.5053
mus	-12.5055
grass	-12.506
▁drafte	-12.5061
▁285	-12.5061
▁harrie	-12.5062
▁serbia	-12.5063
title	-12.5066
ickes	-12.507
ecca	-12.5073
▁knowle	-12.508
▁porter	-12.5082
▁171	-12.5083
dras	-12.5084
▁fluoride	-12.5087
ravind	-12.5096
▁kova	-12.5098
posed	-12.5104
▁cooperate	-12.5112
▁pawn	-12.5121
▁koh	-12.5127
▁bei	-12.5129
▁exchang	-12.5132
▁afore	-12.5132
▁piers	-12.5134
▁khe	-12.5136
▁dunde	-12.5138
▁fable	-12.5146
llt	-12.5147
▁paro	-12.5151
nzie	-12.5153
ister	-12.5155
▁monte	-12.5157
mac	-12.5162
▁una	-12.5166
rtha	-12.5168
▁chun	-12.5184
▁discriminat	-12.5189
▁plu	-12.5197
lav	-12.5199
▁lite	-12.5201
▁freshm	-12.5201
▁expo	-12.5203
mick	-12.5204
pes	-12.5215
ust	-12.5216
rout	-12.5219
pector	-12.5221
▁amb	-12.5229
▁rut	-12.5233
▁pea	-12.5237
illo	-12.5237
▁educate	-12.5239
▁stereotyp	-12.5245
▁mob	-12.525
aux	-12.5268
▁meso	-12.527
hange	-12.5276
▁edmonto	-12.5282
utla	-12.5285
ygo	-12.5286
▁hug	-12.5293
▁bran	-12.5294
▁foreigner	-12.5294
▁allude	-12.5294
ipe	-12.5302
▁hydr	-12.5306
ramc	-12.5317
toba	-12.5325
▁bb	-12.5326
ila	-12.5326
▁vas	-12.5329
eviate	-12.534
illes	-12.5343
▁aux	-12.5354
luk	-12.5359
niel	-12.5362
pede	-12.5366
tri	-12.5371
▁patche	-12.5377
bian	-12.5378
rvis	-12.538
▁hath	-12.5383
raja	-12.5385
▁johan	-12.5387
▁phon	-12.5398
▁simulate	-12.5403
rest	-12.5404
sander	-12.5414
acht	-12.5416
▁narayan	-12.5416
tangle	-12.5418
▁echoe	-12.542
▁boon	-12.5431
monia	-12.5432
▁synthe	-12.5438
▁jama	-12.5443
zi	-12.5462
dip	-12.5466
▁fibr	-12.5474
ope	-12.5477
▁coordinate	-12.548
▁psycho	-12.5484
leba	-12.5494
br	-12.5504
▁xia	-12.5506
nderson	-12.5509
▁mit	-12.5513
▁influ	-12.5517
leck	-12.5518
enber	-12.553
▁relativ	-12.5539
hir	-12.5543
▁irv	-12.5545
ram	-12.5548
▁cracks	-12.5558
▁linguist	-12.5559
▁caste	-12.5562
▁chari	-12.5565
atric	-12.5571
▁overtur	-12.5572
▁wrestle	-12.5577
classifi	-12.558
maker	-12.5582
▁helleni	-12.5583
ative	-12.5585
vern	-12.5586
▁suppose	-12.5589
sthetic	-12.5589
iar	-12.5591
▁calculate	-12.5592
▁prot	-12.5593
▁vita	-12.5594
▁physi	-12.5595
buck	-12.5595
ider	-12.5596
▁shran	-12.5596
tail	-12.5599
uber	-12.56
fork	-12.56
tooth	-12.5603
▁dove	-12.5604
address	-12.5606
deck	-12.5607
distinguish	-12.5608
▁basel	-12.5611
▁hun	-12.5611
kick	-12.5612
forward	-12.5612
▁saf	-12.5612
tower	-12.5613
egie	-12.5618
sleep	-12.562
▁enco	-12.5622
▁penal	-12.5628
▁kidnap	-12.5628
▁noct	-12.5628
▁310	-12.5628
▁rigg	-12.5631
ccent	-12.5632
▁exempt	-12.5632
▁obsess	-12.5633
▁skelet	-12.5633
▁webb	-12.5634
▁volcan	-12.5635
▁infra	-12.5635
▁palac	-12.5636
▁norm	-12.5642
▁reelect	-12.5642
▁unsuit	-12.5642
▁biscay	-12.5642
▁juxtapos	-12.5642
▁appellation	-12.5642
▁bureaucra	-12.5642
▁camouflage	-12.5642
▁counsel	-12.5642
▁deprive	-12.5642
▁discredit	-12.5642
▁honeyeater	-12.5642
▁honeymoon	-12.5642
▁lombard	-12.5642
▁pavilion	-12.5642
▁serpent	-12.5642
▁shropshire	-12.5642
▁unconscious	-12.5642
▁folktale	-12.5642
▁lubrica	-12.5642
▁nostalgi	-12.5642
▁polynesia	-12.5642
▁reissue	-12.5642
▁purported	-12.5642
▁tasmania	-12.5642
▁theropod	-12.5642
otroph	-12.5642
▁horribl	-12.5642
▁kaspar	-12.5642
▁snip	-12.5642
▁cigarette	-12.5642
repentan	-12.5642
▁horrifi	-12.5642
▁versatil	-12.5642
▁steroid	-12.5642
▁ellip	-12.5643
▁raven	-12.5643
▁racquet	-12.5643
▁taiwan	-12.5643
ndis	-12.5643
▁drastic	-12.5643
▁intoxicat	-12.5643
▁barbette	-12.5643
▁sublim	-12.5643
▁telecom	-12.5643
▁ascetic	-12.5643
▁polymer	-12.5643
▁vector	-12.5643
▁beetle	-12.5643
▁tornado	-12.5643
cysti	-12.5643
▁sulfo	-12.5644
ucket	-12.5644
▁proposition	-12.5644
▁riddle	-12.5644
▁auditor	-12.5645
▁pampa	-12.5645
▁diverge	-12.5645
▁dictatorship	-12.5645
▁gangster	-12.5646
▁blog	-12.5647
▁balloon	-12.5647
▁sudan	-12.5647
▁fool	-12.5647
▁brandy	-12.5647
▁miran	-12.5648
person	-12.5649
unders	-12.5649
ibari	-12.5649
▁ligament	-12.5651
etawa	-12.5652
undar	-12.5652
▁genom	-12.5652
▁inflammat	-12.5652
▁exemption	-12.5653
affin	-12.5654
▁restraint	-12.5654
ogns	-12.5654
▁brake	-12.5655
▁norsk	-12.5656
▁kidnapp	-12.5656
▁zim	-12.566
▁webber	-12.566
▁bobcat	-12.566
fold	-12.5661
▁robotic	-12.5662
▁prue	-12.5662
▁dipp	-12.5663
chase	-12.5663
▁pé	-12.5663
▁angl	-12.5664
rebrand	-12.5665
▁hmc	-12.5665
▁coco	-12.5666
adel	-12.5666
▁roug	-12.5666
▁confer	-12.5666
tomato	-12.5666
▁eisen	-12.5666
cast	-12.5667
mpassion	-12.5667
▁imitat	-12.5668
▁parall	-12.567
▁surreal	-12.567
▁marath	-12.5671
petra	-12.5672
▁lenin	-12.5672
ecw	-12.5672
▁banish	-12.5674
▁drape	-12.5674
forth	-12.5676
madsen	-12.5676
▁pré	-12.568
▁catalys	-12.5682
▁modernize	-12.5682
▁superb	-12.5684
avia	-12.5688
▁terminate	-12.569
▁faust	-12.5692
▁magnus	-12.5696
▁padd	-12.5696
▁teng	-12.5697
look	-12.5698
▁behead	-12.5698
▁execute	-12.57
hael	-12.5701
lieu	-12.5701
▁patti	-12.5703
▁tann	-12.5703
tje	-12.5708
ppen	-12.5708
ratz	-12.5709
▁objector	-12.572
▁amass	-12.5721
▁abdicat	-12.5722
▁escalat	-12.5723
hil	-12.5724
▁aborti	-12.5727
▁sanita	-12.5729
rute	-12.5731
shik	-12.5732
▁chronicler	-12.5736
▁frau	-12.5737
▁natal	-12.5739
▁typesett	-12.574
▁elevate	-12.5746
▁cri	-12.5746
▁stark	-12.5749
▁genev	-12.5752
▁wilbur	-12.5754
▁vacanc	-12.5763
▁localit	-12.5767
▁ransom	-12.5767
▁repl	-12.5769
jeune	-12.577
▁fertilis	-12.577
▁expressive	-12.5774
▁kv	-12.5774
akin	-12.5777
▁cere	-12.578
▁satur	-12.5781
▁otra	-12.5781
▁maur	-12.5782
▁khme	-12.5788
▁longitud	-12.5789
orian	-12.5792
▁rand	-12.5795
tute	-12.5795
▁pause	-12.5796
grat	-12.5799
▁depos	-12.58
▁robb	-12.5801
▁dire	-12.5803
mir	-12.5803
▁salaa	-12.5806
rigg	-12.581
▁tile	-12.5813
▁sideline	-12.5813
▁rub	-12.5816
list	-12.5819
▁stowa	-12.5823
▁dip	-12.5824
urine	-12.5829
▁catal	-12.583
loo	-12.5831
egal	-12.5845
▁lookout	-12.5845
nit	-12.5846
gha	-12.5847
ipulat	-12.585
▁352	-12.5852
▁predat	-12.5855
fia	-12.5863
▁electora	-12.5872
▁sola	-12.5875
▁mul	-12.5877
▁drumm	-12.5881
roud	-12.5882
▁abduct	-12.5882
cco	-12.5886
▁inmate	-12.5887
▁gac	-12.5894
rihan	-12.5895
▁denard	-12.5902
▁uter	-12.5905
▁photographer	-12.591
▁catcher	-12.5918
▁nares	-12.5919
▁yat	-12.5929
▁lana	-12.5938
aves	-12.5949
▁finer	-12.5954
▁titu	-12.5955
▁anup	-12.596
▁steward	-12.5966
▁pola	-12.5967
▁scru	-12.5968
▁271	-12.5969
▁chad	-12.5974
abba	-12.5979
▁typograph	-12.5982
wear	-12.5985
algar	-12.599
▁spra	-12.5994
▁node	-12.5995
▁seaw	-12.5999
close	-12.6003
taro	-12.6008
▁lambs	-12.6016
▁jaya	-12.6019
esha	-12.6021
▁optic	-12.6033
▁meteor	-12.6034
asso	-12.6034
▁rodd	-12.6037
adal	-12.6044
▁solidif	-12.605
soon	-12.6055
retake	-12.6056
avya	-12.6075
▁stadi	-12.6082
▁dami	-12.6083
thurs	-12.6089
▁coating	-12.609
▁induce	-12.6093
▁verif	-12.6097
▁mck	-12.61
gara	-12.6101
hog	-12.6109
▁purg	-12.6119
kla	-12.6119
▁bism	-12.6119
▁covert	-12.6133
lida	-12.6134
lvar	-12.6136
660	-12.6151
iker	-12.6152
▁slop	-12.6153
lec	-12.6155
ocer	-12.6163
▁devotee	-12.6167
▁mott	-12.6167
nf	-12.6178
▁spectra	-12.6181
▁accuse	-12.6187
▁salvage	-12.6201
▁cag	-12.6211
▁monop	-12.6214
dam	-12.6216
▁purifi	-12.6216
▁relocate	-12.6221
obia	-12.6234
ucat	-12.6235
▁heid	-12.6236
atia	-12.6239
pard	-12.624
ibe	-12.624
shaw	-12.6241
cli	-12.6243
▁malt	-12.6246
ozi	-12.6258
lush	-12.626
ffen	-12.6262
aft	-12.6267
elia	-12.6272
verse	-12.6275
▁adheren	-12.6276
herent	-12.6277
▁contrasting	-12.6286
▁nar	-12.6288
scene	-12.6293
▁carc	-12.6308
▁hutchin	-12.6312
▁scotti	-12.6314
vn	-12.6315
▁credi	-12.6316
▁monog	-12.6317
erle	-12.6321
carell	-12.6332
▁ribosom	-12.6333
num	-12.6346
leton	-12.6349
▁sv	-12.6355
lace	-12.6369
▁interfer	-12.6385
▁capri	-12.6396
▁mack	-12.6402
▁catche	-12.6403
balis	-12.6405
urke	-12.6412
losaur	-12.6429
▁spher	-12.6434
▁brahm	-12.6442
▁symbolize	-12.6443
cello	-12.645
▁batch	-12.6452
▁signifie	-12.6465
udd	-12.6488
▁liter	-12.6496
▁pinkne	-12.6496
iti	-12.6497
▁methodolog	-12.6498
oria	-12.6507
▁hab	-12.6539
▁gallia	-12.654
hbo	-12.6542
divid	-12.6552
peake	-12.6554
▁launcher	-12.6554
abine	-12.6555
▁analy	-12.6566
▁robes	-12.6573
idar	-12.6585
rane	-12.6591
mere	-12.6594
latino	-12.6595
▁creativ	-12.6597
▁precis	-12.6599
action	-12.6602
▁ceratopsia	-12.6609
phal	-12.6609
▁conve	-12.6613
▁narrate	-12.662
▁diag	-12.6621
elg	-12.6622
▁stabilize	-12.6623
▁raj	-12.6624
▁bak	-12.6626
▁swim	-12.6627
▁hut	-12.6628
▁dredg	-12.6628
▁posit	-12.6629
ripp	-12.663
▁hack	-12.6631
▁descripti	-12.6633
mpire	-12.6635
▁panthe	-12.6637
clusive	-12.6639
▁oblig	-12.664
rative	-12.664
▁ridicul	-12.664
▁lambeosaur	-12.6641
▁symbio	-12.6641
▁calc	-12.6642
pecul	-12.6642
▁disapprov	-12.6642
▁jakob	-12.6642
▁brainwash	-12.6642
▁cramp	-12.6642
▁entrepreneur	-12.6642
▁handbag	-12.6642
▁hieroglyph	-12.6642
▁incompeten	-12.6642
▁militant	-12.6642
▁paleontologist	-12.6642
▁palisade	-12.6642
▁polypeptide	-12.6642
▁precaution	-12.6642
▁salvo	-12.6642
▁turbulen	-12.6642
▁unfavorabl	-12.6642
▁wrangl	-12.6642
▁aurora	-12.6642
▁effig	-12.6642
▁quarrel	-12.6642
▁neoceratopsia	-12.6642
▁unjust	-12.6642
▁alfons	-12.6642
▁instalment	-12.6642
▁scroll	-12.6642
▁asylum	-12.6642
▁saxophon	-12.6642
▁tahiti	-12.6642
▁undeniabl	-12.6642
▁étude	-12.6642
▁precept	-12.6642
▁solemn	-12.6642
▁apost	-12.6642
▁sarsen	-12.6643
▁saloon	-12.6643
▁superstitio	-12.6643
▁spindle	-12.6643
▁beaufort	-12.6643
▁pongola	-12.6643
▁carpet	-12.6643
amous	-12.6643
▁subdue	-12.6643
▁dwelling	-12.6643
▁gaunt	-12.6643
▁charisma	-12.6643
▁cookbook	-12.6643
▁standpoint	-12.6643
▁correlat	-12.6643
▁lizard	-12.6643
plugge	-12.6644
▁organelle	-12.6644
▁ellerbe	-12.6644
topol	-12.6644
▁negat	-12.6644
▁surya	-12.6644
▁fatima	-12.6645
▁envoy	-12.6645
▁carbonate	-12.6645
▁octavia	-12.6645
rizz	-12.6646
▁chew	-12.6646
▁loom	-12.6646
▁neuro	-12.6646
▁preface	-12.6646
▁livelihood	-12.6646
▁bracket	-12.6647
▁obstruction	-12.6647
▁grandios	-12.6647
nagh	-12.6648
cadi	-12.6648
fune	-12.6648
▁pub	-12.6648
▁mathematician	-12.6649
▁inhibitor	-12.665
ocre	-12.665
▁dragg	-12.665
naras	-12.665
spora	-12.665
▁disabilit	-12.6651
▁holster	-12.6651
▁weiss	-12.6651
evolen	-12.6651
▁supermar	-12.6653
▁soloist	-12.6653
▁hoist	-12.6653
▁suc	-12.6654
▁ghara	-12.6654
▁digest	-12.6655
▁discount	-12.6655
flue	-12.6656
▁exhale	-12.6656
▁mustang	-12.6657
▁elastic	-12.6658
evolv	-12.6658
▁sonat	-12.666
▁intestine	-12.6661
ohn	-12.6664
▁lima	-12.6665
▁transl	-12.6665
▁luz	-12.6667
▁lobe	-12.6668
eopard	-12.6669
perfection	-12.667
▁eclips	-12.667
▁sensu	-12.6674
▁piz	-12.6675
▁indicator	-12.6677
▁steiner	-12.6678
▁encycl	-12.668
withstand	-12.6681
nomi	-12.6682
endra	-12.6682
▁rhine	-12.6682
▁krist	-12.6684
andler	-12.6686
deacon	-12.6686
nha	-12.6687
acker	-12.6688
▁polit	-12.6688
guilla	-12.6696
▁isthm	-12.6697
▁numerical	-12.6698
▁paler	-12.6699
▁wynn	-12.67
▁flyby	-12.6702
inawa	-12.6702
grims	-12.6702
iles	-12.6702
▁mapp	-12.6704
monsen	-12.6704
hwa	-12.6705
quit	-12.6707
▁767	-12.671
▁thinker	-12.6711
▁waive	-12.6712
fried	-12.6713
carmel	-12.6713
erunner	-12.6715
▁corrosi	-12.6715
▁taxon	-12.6716
load	-12.6716
asteroid	-12.6717
brough	-12.672
▁emulat	-12.6721
offensive	-12.6723
protect	-12.6724
▁proh	-12.6725
▁rage	-12.6726
▁contender	-12.6726
famous	-12.6728
purpose	-12.6728
▁flax	-12.673
▁rite	-12.6731
constitution	-12.6733
▁perch	-12.6735
▁gabo	-12.6737
▁polyg	-12.6741
stem	-12.6745
▁apolog	-12.6746
onal	-12.6746
safe	-12.6749
▁agil	-12.675
▁balkan	-12.6751
▁cr	-12.6752
▁silico	-12.6753
location	-12.6755
law	-12.6757
tto	-12.6757
haddo	-12.6758
blo	-12.676
deo	-12.6773
▁chicken	-12.6773
shot	-12.6776
▁berth	-12.6776
▁bless	-12.6784
lept	-12.6785
▁ferrie	-12.6785
▁recreate	-12.6787
lute	-12.6789
▁proton	-12.6789
▁cara	-12.6793
▁dash	-12.6793
▁bolet	-12.6798
tional	-12.6803
▁wilk	-12.6809
▁dix	-12.682
▁voca	-12.6821
▁disorgani	-12.6823
estre	-12.6837
▁batche	-12.6848
▁noticeabl	-12.6848
▁jacobi	-12.6848
rief	-12.6854
▁banga	-12.6863
▁mycelia	-12.6874
riction	-12.6875
illion	-12.6877
halid	-12.6881
▁stere	-12.6891
▁apath	-12.6894
kang	-12.6901
utic	-12.691
train	-12.6912
▁ava	-12.6915
▁barbad	-12.6921
moni	-12.6926
unge	-12.6928
▁intrigue	-12.6935
▁lectur	-12.6949
▁cogniti	-12.6951
▁radiate	-12.697
▁brod	-12.6976
▁needle	-12.6977
▁gut	-12.6977
▁lure	-12.6988
▁xa	-12.6991
▁gur	-12.6995
mesa	-12.6997
▁nat	-12.6999
plan	-12.7001
▁reasonabl	-12.7005
▁embrace	-12.7009
▁272	-12.7011
▁overture	-12.7012
▁mcle	-12.7015
ello	-12.7022
salem	-12.7024
▁mech	-12.7027
▁tart	-12.7033
otic	-12.7035
▁excavate	-12.7037
▁drag	-12.7039
▁mow	-12.704
▁standardi	-12.704
▁é	-12.704
▁disuse	-12.704
phae	-12.7046
▁aide	-12.705
fender	-12.7055
▁rower	-12.706
▁seduct	-12.7061
▁likeness	-12.7074
▁titan	-12.7075
▁cess	-12.7077
▁constab	-12.7084
haga	-12.7085
nock	-12.7087
uisin	-12.709
▁degenerat	-12.7091
▁replie	-12.7102
allas	-12.7105
▁compli	-12.7112
eche	-12.7119
trust	-12.712
▁allud	-12.7121
andi	-12.7134
ervoi	-12.7146
goro	-12.715
olu	-12.7161
unset	-12.7162
ban	-12.7162
rade	-12.7164
▁ambi	-12.7179
▁chromati	-12.7187
▁baptiste	-12.7191
fluent	-12.7193
▁conn	-12.7197
▁pave	-12.7205
950	-12.7208
▁lib	-12.7209
▁crom	-12.7214
ckey	-12.7216
▁entertainer	-12.7223
abor	-12.723
▁ioniz	-12.7232
▁esa	-12.7232
▁harmonic	-12.7245
▁yuk	-12.7263
rtford	-12.7266
scap	-12.7268
ubble	-12.7276
▁mayo	-12.728
loughb	-12.7304
▁evaluate	-12.7316
ntry	-12.7347
voke	-12.7355
▁brando	-12.7376
▁mcfa	-12.7379
▁halla	-12.7385
▁violate	-12.74
itter	-12.7419
▁wend	-12.742
tract	-12.742
▁chir	-12.7424
dden	-12.7426
▁syndicate	-12.7426
gum	-12.7435
▁calo	-12.7446
shii	-12.745
▁iguan	-12.7458
▁wit	-12.7464
eration	-12.7467
▁seme	-12.7468
▁hove	-12.7472
▁herbivor	-12.7474
narth	-12.7496
▁cante	-12.7504
▁corr	-12.7515
fx	-12.7536
▁dent	-12.754
▁clo	-12.7543
▁xu	-12.7543
artisan	-12.7546
▁haze	-12.7553
▁gab	-12.7557
fel	-12.756
vig	-12.7565
▁headlin	-12.7565
trous	-12.7567
▁grou	-12.758
▁socie	-12.7591
▁spar	-12.7594
▁personifi	-12.7595
ved	-12.7599
▁hare	-12.7602
▁pare	-12.7606
relian	-12.7609
ggi	-12.761
ctic	-12.761
▁bucha	-12.7616
▁gui	-12.764
abd	-12.7644
rawl	-12.7644
▁bip	-12.7649
mela	-12.7653
▁trag	-12.7654
igator	-12.767
lla	-12.7673
justi	-12.7676
▁compen	-12.768
▁cov	-12.768
los	-12.7686
▁firef	-12.769
▁flor	-12.7692
▁swor	-12.7692
▁forbid	-12.7698
▁exci	-12.77
▁deva	-12.7703
werf	-12.7707
▁intervene	-12.771
nig	-12.7713
▁boil	-12.7722
▁garde	-12.7725
▁exac	-12.773
esar	-12.7736
▁possesse	-12.7737
arbor	-12.7738
▁casual	-12.7738
rov	-12.7739
▁recept	-12.7742
▁anthropo	-12.7748
▁silen	-12.7749
▁catalog	-12.7749
▁whale	-12.7751
incidence	-12.7751
▁dialog	-12.7752
template	-12.7752
rrogate	-12.7752
funct	-12.7752
▁accompli	-12.7753
ploit	-12.7753
▁livin	-12.7753
▁refra	-12.7753
▁spill	-12.7753
lumni	-12.7753
▁regurgitat	-12.7753
mycorrhiza	-12.7753
▁ablution	-12.7753
▁crevice	-12.7753
▁gorgeous	-12.7753
▁hormone	-12.7753
▁inaccurate	-12.7753
▁mennonite	-12.7753
▁ornithologist	-12.7753
▁ornithopod	-12.7753
▁overhaul	-12.7753
▁protocol	-12.7753
▁psittacosaur	-12.7753
▁reappear	-12.7753
▁regroup	-12.7753
▁sapper	-12.7753
▁subfossil	-12.7753
▁transcend	-12.7753
▁clarify	-12.7753
▁discrepanc	-12.7753
▁seminole	-12.7753
▁josip	-12.7753
rashtra	-12.7753
▁fiancé	-12.7753
▁reneg	-12.7753
▁glaz	-12.7753
▁currenc	-12.7753
▁figurine	-12.7753
▁redeem	-12.7753
▁irritati	-12.7754
▁exclaim	-12.7754
rithm	-12.7754
▁coriol	-12.7754
guren	-12.7754
▁maximili	-12.7754
▁alluvi	-12.7754
▁indefinite	-12.7754
▁wrist	-12.7754
▁resurfac	-12.7754
▁tulsi	-12.7754
▁pinnacle	-12.7754
pacab	-12.7754
▁pathogen	-12.7754
▁grabb	-12.7754
▁gunboat	-12.7754
▁genealog	-12.7755
▁canaan	-12.7755
▁filament	-12.7755
▁relapse	-12.7755
▁blanket	-12.7755
▁roast	-12.7755
▁spearhead	-12.7755
▁krayo	-12.7755
▁biologist	-12.7755
▁recess	-12.7755
▁comma	-12.7755
▁ligature	-12.7755
▁becker	-12.7755
▁roommate	-12.7755
▁incur	-12.7755
osoma	-12.7755
▁philipp	-12.7756
dslide	-12.7756
▁entail	-12.7756
▁hodg	-12.7756
▁textbook	-12.7756
▁streetcar	-12.7756
▁stronghold	-12.7756
borde	-12.7756
▁proprietor	-12.7756
dispensa	-12.7756
▁coincidence	-12.7757
▁ruthenia	-12.7757
▁reorganize	-12.7757
▁rallie	-12.7757
▁sankat	-12.7759
▁zeit	-12.7759
▁fashi	-12.7759
▁hendri	-12.7759
▁malign	-12.776
▁legitima	-12.7761
cephal	-12.7761
▁improvisation	-12.7761
▁dweller	-12.7761
ague	-12.7761
▁latti	-12.7762
▁gown	-12.7763
▁jude	-12.7765
▁imitation	-12.7765
▁minefield	-12.7765
▁defendant	-12.7766
▁asiatic	-12.7766
▁amphibian	-12.7767
▁axle	-12.7767
fleur	-12.7767
acp	-12.7767
▁hypo	-12.7768
▁idle	-12.7768
▁endow	-12.7769
▁subscribe	-12.777
arjun	-12.7772
jal	-12.7773
nterior	-12.7773
storia	-12.7774
▁naka	-12.7774
▁calami	-12.7775
▁overflow	-12.7775
egis	-12.7776
▁transparen	-12.7778
▁fairf	-12.7781
tomyc	-12.7782
tubul	-12.7783
▁unionist	-12.7783
▁pandit	-12.7784
tig	-12.7786
genda	-12.7787
▁mito	-12.7788
▁kary	-12.7789
▁blaze	-12.779
▁triatomin	-12.779
▁1230	-12.7791
sari	-12.7791
verge	-12.7794
spheric	-12.7794
▁paranoi	-12.7796
▁assertive	-12.7797
▁nep	-12.7798
▁foal	-12.78
▁alkali	-12.78
sandro	-12.7802
▁lambe	-12.7802
▁bandit	-12.7806
▁inundat	-12.7808
commendation	-12.7812
▁hatter	-12.7812
▁calcu	-12.7813
▁kiplin	-12.7814
▁humb	-12.7814
▁octave	-12.7814
▁scaff	-12.7816
ardi	-12.7817
adt	-12.7818
▁tramp	-12.7819
▁stumble	-12.7821
iv	-12.7823
▁doom	-12.7825
ibu	-12.7829
hooter	-12.7831
hant	-12.7831
▁pater	-12.7833
reath	-12.7834
▁hype	-12.7835
hq	-12.7835
auder	-12.7837
neous	-12.7838
▁forecaster	-12.7839
▁rh	-12.7845
▁correction	-12.7848
▁mcki	-12.7852
▁katr	-12.7854
▁peacekeep	-12.7857
▁139	-12.786
mune	-12.7866
▁manse	-12.7867
rap	-12.787
▁benn	-12.787
▁craftsm	-12.7871
rko	-12.7872
▁schne	-12.7873
elin	-12.7874
▁miya	-12.7876
▁seep	-12.7877
▁meng	-12.7883
hora	-12.7889
▁vir	-12.7891
incorporat	-12.7897
▁reel	-12.7899
ylin	-12.7905
▁fern	-12.7912
chromati	-12.7913
asci	-12.7913
oga	-12.7919
ehead	-12.7926
▁tetr	-12.793
unt	-12.793
izar	-12.7932
▁outfitt	-12.7933
▁salam	-12.7937
warm	-12.7941
▁infinite	-12.7942
▁sci	-12.7943
▁shak	-12.7948
guel	-12.795
lift	-12.7954
opa	-12.7956
980	-12.7956
cuff	-12.7957
▁provider	-12.7957
relevan	-12.7959
realistic	-12.796
wicke	-12.7961
con	-12.7962
myelo	-12.7968
bearing	-12.7968
molecule	-12.7968
boot	-12.7969
esthetic	-12.7971
'	-12.7974
sexual	-12.7974
availab	-12.7974
significant	-12.7975
smo	-12.7976
john	-12.7976
with	-12.7976
quir	-12.7982
tape	-12.7984
▁organiser	-12.7989
lyde	-12.7992
▁ele	-12.7995
stabili	-12.8
child	-12.8
asis	-12.8008
alban	-12.8023
about	-12.8024
uten	-12.8024
hero	-12.8025
leaf	-12.8026
▁xuan	-12.8026
▁levit	-12.805
ritt	-12.8051
alden	-12.8053
▁doubl	-12.8058
urak	-12.8058
▁deficien	-12.8062
▁banker	-12.8063
ilation	-12.8077
▁urge	-12.8078
▁oust	-12.808
▁bernis	-12.808
bla	-12.8087
easter	-12.8098
chmen	-12.8103
▁headline	-12.8104
▁esport	-12.8111
handel	-12.8117
▁confesse	-12.813
nport	-12.8134
▁donnel	-12.8136
▁edmond	-12.8137
▁desp	-12.8139
echt	-12.8144
▁alexandria	-12.8146
▁quint	-12.8148
▁amus	-12.8149
anni	-12.8152
sophie	-12.8156
ckle	-12.8161
▁augusta	-12.8166
▁reserv	-12.8171
▁margat	-12.8174
ophag	-12.8175
▁shir	-12.8179
citation	-12.8181
tian	-12.8183
ugh	-12.8191
kona	-12.8199
▁warne	-12.8205
▁wid	-12.8214
▁zoologi	-12.8216
▁toppl	-12.8219
▁chronolog	-12.8219
atkins	-12.8222
▁mam	-12.8233
▁stru	-12.8233
▁231	-12.8238
▁triangulat	-12.8239
▁gentl	-12.8256
▁pala	-12.8263
▁rei	-12.8263
▁salman	-12.8279
▁vish	-12.8283
pan	-12.8285
zan	-12.829
gage	-12.8297
▁rot	-12.8313
▁annu	-12.833
atur	-12.8335
▁intolera	-12.8343
▁deepen	-12.8345
▁padu	-12.8353
▁armag	-12.8363
▁disperse	-12.8369
▁invasi	-12.8373
▁koop	-12.8378
esports	-12.839
▁rip	-12.839
▁kil	-12.84
flu	-12.8402
850	-12.8403
▁goeb	-12.8408
act	-12.8416
▁ravin	-12.8423
ulli	-12.8434
▁avenge	-12.8446
chad	-12.8446
▁corona	-12.8448
rosso	-12.8459
▁indir	-12.8473
▁maxim	-12.8483
tson	-12.8496
agne	-12.8496
▁simulat	-12.8505
▁circ	-12.8512
▁wag	-12.8518
▁bli	-12.8538
▁forgett	-12.8549
▁kurd	-12.8559
▁tempera	-12.8565
▁supervise	-12.8568
weil	-12.8569
aynes	-12.8571
onymous	-12.8598
ilan	-12.8602
marked	-12.8604
▁brut	-12.8606
▁dori	-12.8606
▁samo	-12.8617
urra	-12.862
▁broadcaster	-12.8639
▁propel	-12.8662
▁brav	-12.8665
▁goodwi	-12.8671
fabricat	-12.8678
▁balt	-12.8678
▁othe	-12.8682
▁alienate	-12.869
▁nur	-12.869
ilkins	-12.8695
▁woo	-12.8699
▁chromosom	-12.8701
▁stegosaur	-12.8707
vance	-12.871
▁stib	-12.8727
lop	-12.8729
gt	-12.8733
▁mata	-12.8742
ifice	-12.8749
chell	-12.8753
▁shiz	-12.8755
pong	-12.8755
vata	-12.8758
eja	-12.8759
▁malay	-12.8769
▁atla	-12.877
mark	-12.8778
▁slav	-12.88
▁compu	-12.8824
▁avi	-12.8826
▁defian	-12.8836
bach	-12.8844
▁hild	-12.885
ubi	-12.8853
▁travers	-12.8865
▁ample	-12.8865
arpa	-12.8867
▁circulate	-12.8868
▁hue	-12.8871
▁polo	-12.8871
▁marr	-12.8872
mpress	-12.8876
finite	-12.8881
▁cycl	-12.8887
▁socio	-12.8893
azar	-12.8898
▁dealers	-12.8907
poor	-12.8907
ference	-12.891
▁scare	-12.8917
▁disma	-12.8918
▁curl	-12.892
starte	-12.8922
hall	-12.8926
▁shru	-12.8954
▁alga	-12.8957
tila	-12.8958
▁totall	-12.8958
▁samar	-12.8959
▁advers	-12.8961
▁rhin	-12.8962
ekk	-12.8967
▁fundrais	-12.8968
ocial	-12.8969
napp	-12.897
caffo	-12.897
riple	-12.8971
vign	-12.8971
▁frag	-12.8976
apa	-12.8982
ext	-12.8984
rox	-12.8984
anita	-12.8986
awke	-12.8989
auti	-12.899
▁expedit	-12.8994
allon	-12.8995
▁olymp	-12.8998
▁propriet	-12.9
hipper	-12.9001
▁sarc	-12.9001
▁manifest	-12.9001
▁crac	-12.9002
▁amalgamat	-12.9003
▁wakaba	-12.9003
▁epistemolog	-12.9003
▁neglig	-12.9003
▁adjective	-12.9003
▁aftershock	-12.9003
▁catapult	-12.9003
▁chakrab	-12.9003
▁chalukya	-12.9003
▁dacoit	-12.9003
▁discreet	-12.9003
▁embankment	-12.9003
▁enantio	-12.9003
▁engender	-12.9003
▁esteem	-12.9003
▁flavour	-12.9003
▁fluctuat	-12.9003
▁gudbrandsdalen	-12.9003
▁incessant	-12.9003
▁intrinsic	-12.9003
▁overcrowd	-12.9003
▁relaunch	-12.9003
▁repeal	-12.9003
▁shepherd	-12.9003
▁sportswriter	-12.9003
▁suspicious	-12.9003
▁undetect	-12.9003
▁vintner	-12.9003
▁automo	-12.9003
▁handicap	-12.9003
▁impoverish	-12.9003
▁mosquito	-12.9003
▁vikram	-12.9003
glomerat	-12.9003
▁disobe	-12.9003
▁intertwine	-12.9003
▁aspir	-12.9003
▁infertil	-12.9003
▁ethnograph	-12.9003
▁exponent	-12.9003
▁relinquish	-12.9003
hopper	-12.9003
▁sorcer	-12.9003
▁succumb	-12.9003
▁intimidat	-12.9004
ohar	-12.9004
▁blotche	-12.9004
▁infatuat	-12.9004
prus	-12.9004
▁amplifie	-12.9004
rrhi	-12.9004
▁preclude	-12.9004
▁thigh	-12.9004
▁monotheis	-12.9004
▁predication	-12.9004
seminat	-12.9004
▁clump	-12.9004
▁disparag	-12.9004
▁breeze	-12.9004
▁newcomer	-12.9004
▁tiebreak	-12.9004
ambic	-12.9004
▁delusion	-12.9004
▁alumin	-12.9004
nthia	-12.9004
unori	-12.9005
▁seaplane	-12.9005
▁fresn	-12.9005
▁regina	-12.9005
▁paragraph	-12.9005
▁theorem	-12.9005
▁mitch	-12.9005
▁intrac	-12.9005
cleop	-12.9005
▁molo	-12.9005
▁hypno	-12.9005
▁neighbourhood	-12.9006
▁rift	-12.9006
tabh	-12.9006
▁brooch	-12.9006
nemato	-12.9006
▁arrogan	-12.9007
▁aspiration	-12.9007
▁unmar	-12.9007
▁vacat	-12.9008
niew	-12.9008
▁abbreviation	-12.9008
▁hoffman	-12.9008
▁hibb	-12.9009
▁loyalist	-12.9009
▁baptism	-12.9009
▁meik	-12.901
▁perfume	-12.901
▁undis	-12.901
▁amylo	-12.9011
▁capsule	-12.9011
▁gravestone	-12.9012
rigue	-12.9013
nuj	-12.9013
hower	-12.9013
▁papyr	-12.9014
▁whaler	-12.9016
▁adjustment	-12.9016
▁sturn	-12.9017
iphon	-12.9017
▁enthusiast	-12.9018
▁litre	-12.9019
orpe	-12.902
▁ptah	-12.902
▁baku	-12.902
▁mist	-12.9021
ngola	-12.9021
▁pasture	-12.9021
earby	-12.9021
▁perpetua	-12.9022
▁timo	-12.9022
▁dredge	-12.9022
▁cynic	-12.9023
▁vijaya	-12.9024
▁permanen	-12.9024
▁rebu	-12.9024
lature	-12.9025
ngaria	-12.9025
▁preach	-12.9025
ndid	-12.9026
▁sept	-12.9026
▁afro	-12.9027
▁distraction	-12.9029
▁lieb	-12.9029
▁bestseller	-12.903
▁conven	-12.903
▁mohan	-12.9031
▁quaker	-12.9033
▁eterni	-12.9033
lleti	-12.9033
▁translator	-12.9035
bur	-12.9035
ramic	-12.9038
ignan	-12.9039
▁sedge	-12.9041
▁troll	-12.9042
verpa	-12.9042
▁schul	-12.9043
osphere	-12.9044
▁braz	-12.9044
▁cua	-12.9047
ique	-12.9047
umbria	-12.9048
ritsch	-12.905
hound	-12.9051
etch	-12.9053
pren	-12.9056
▁misuse	-12.9058
▁samant	-12.906
▁importin	-12.906
rump	-12.9061
▁1250	-12.9062
▁rudder	-12.9062
étu	-12.9064
idf	-12.9066
▁valeria	-12.9066
▁rasc	-12.9066
▁larra	-12.9068
ssert	-12.9068
▁bala	-12.9073
▁fla	-12.9074
simil	-12.9075
▁zur	-12.9077
▁nicholl	-12.9081
▁laz	-12.9082
▁interc	-12.9084
▁evocati	-12.9086
▁abdul	-12.9088
jad	-12.9089
▁heel	-12.9089
▁syra	-12.909
▁concord	-12.9092
▁foreb	-12.9112
lux	-12.9113
▁stro	-12.9116
tool	-12.9126
llc	-12.9126
▁corneli	-12.9127
▁zeal	-12.9141
▁jagge	-12.9144
▁orio	-12.9144
▁deter	-12.9153
assau	-12.9156
▁kimm	-12.9157
alini	-12.9159
▁warhead	-12.916
▁mom	-12.9161
rano	-12.9162
▁smoker	-12.9164
▁tarp	-12.9166
▁scan	-12.9174
▁baptis	-12.9176
▁aust	-12.9178
▁mischie	-12.9181
▁marque	-12.9183
▁adventurer	-12.9189
rman	-12.919
▁airship	-12.9191
ensic	-12.9197
▁portis	-12.92
▁tulli	-12.9201
▁capon	-12.9209
sche	-12.9214
▁provo	-12.9215
▁specialize	-12.9216
▁suba	-12.9218
▁laver	-12.9221
entral	-12.9225
▁rebe	-12.9231
▁grim	-12.9232
ourage	-12.9233
anist	-12.9234
wait	-12.9239
▁473	-12.9244
utton	-12.9248
▁palati	-12.925
ency	-12.9254
caster	-12.9255
nache	-12.9263
▁disciplinar	-12.9267
▁symboliz	-12.9268
▁electroly	-12.9269
cian	-12.9271
592	-12.9276
▁orchestrat	-12.9279
iliar	-12.9279
bmi	-12.928
▁kame	-12.9289
▁nz	-12.9296
▁faye	-12.9304
mud	-12.9305
▁trot	-12.9307
▁luca	-12.9308
▁poise	-12.9316
▁lat	-12.9316
centraliz	-12.9323
▁pota	-12.9326
▁ignoran	-12.9328
▁airb	-12.9334
demar	-12.9347
hildre	-12.9362
pecki	-12.9366
narayan	-12.9368
advert	-12.9374
describ	-12.9377
frog	-12.9379
▁leop	-12.9381
bak	-12.9382
familiar	-12.9388
conventional	-12.9391
fé	-12.9391
rran	-12.9393
ensation	-12.9394
secur	-12.9395
▁premaxillar	-12.9395
▁fang	-12.9396
▁outsider	-12.9396
electric	-12.9399
prepared	-12.94
repair	-12.94
commission	-12.9401
shift	-12.9401
assembl	-12.9402
camp	-12.9403
content	-12.9403
track	-12.9403
summer	-12.9405
▁passive	-12.9405
roads	-12.9406
tron	-12.9406
dead	-12.9407
antoni	-12.9409
media	-12.9416
bald	-12.9416
▁hube	-12.9419
▁gallo	-12.942
ffi	-12.942
rp	-12.9421
▁pseudon	-12.9431
phi	-12.9435
▁pemb	-12.944
tenant	-12.9443
▁sacri	-12.945
▁relie	-12.9453
holder	-12.9455
▁vog	-12.9461
kara	-12.9464
▁authori	-12.9471
▁moshe	-12.9472
lican	-12.948
▁lyne	-12.9488
820	-12.9488
rigi	-12.9488
▁fero	-12.9489
▁nana	-12.949
▁booty	-12.9493
upe	-12.9495
verna	-12.9503
djan	-12.9506
cene	-12.9518
▁502	-12.952
rut	-12.9526
vol	-12.955
sanne	-12.9551
elf	-12.9558
hru	-12.956
▁burr	-12.9562
▁wisd	-12.9568
impress	-12.9573
entire	-12.9582
bring	-12.9583
▁tonal	-12.9587
▁ste	-12.9592
▁rusher	-12.9596
▁flam	-12.9596
ldron	-12.9598
mpa	-12.9603
▁dram	-12.9612
▁dunam	-12.9614
rel	-12.9616
lanti	-12.9621
▁infl	-12.9623
▁gai	-12.9626
erich	-12.963
▁blockad	-12.9635
sibl	-12.964
▁knop	-12.9648
tide	-12.9659
▁categori	-12.9682
▁popp	-12.9685
aise	-12.9688
▁thre	-12.9691
cm	-12.9693
▁claudi	-12.9698
▁reformer	-12.97
uci	-12.9716
mplain	-12.9723
▁mako	-12.9733
▁appropriat	-12.9739
ock	-12.9741
▁isid	-12.9761
▁harden	-12.9765
codi	-12.9767
▁subse	-12.9772
pawne	-12.9775
tomac	-12.9778
umble	-12.978
agger	-12.9786
gnific	-12.9788
▁pierce	-12.9795
wether	-12.9797
▁mailing	-12.9811
▁collaborate	-12.9823
cile	-12.9834
aster	-12.9834
broke	-12.9838
▁gru	-12.9838
arat	-12.986
▁exclude	-12.9865
dé	-12.9879
▁sala	-12.9885
dog	-12.9887
▁adher	-12.9889
hak	-12.9899
▁huggin	-12.9901
lga	-12.9904
▁conserv	-12.9927
quin	-12.9928
row	-12.995
▁nara	-12.9951
▁idealist	-12.9966
▁noblem	-12.9967
▁contempora	-12.9967
vic	-12.9968
ntern	-12.9992
▁kowa	-12.9994
spirator	-13.0001
entor	-13.0002
pendi	-13.0014
enz	-13.0027
▁quan	-13.0028
subordinat	-13.0037
ration	-13.0054
▁mori	-13.0062
▁parei	-13.0062
▁babylon	-13.0064
▁divin	-13.0073
▁vibrat	-13.0077
pers	-13.0082
jian	-13.0093
acle	-13.0105
xin	-13.0107
▁rainb	-13.0109
▁archae	-13.012
fol	-13.013
rnik	-13.0134
easant	-13.0135
▁hurl	-13.0136
sports	-13.0147
▁mcm	-13.0154
▁parasit	-13.0166
▁surg	-13.0167
▁glamo	-13.0185
▁hume	-13.0191
▁valenc	-13.0198
▁balanc	-13.0198
orous	-13.0203
magneti	-13.0203
▁residu	-13.021
▁rebell	-13.0214
▁rocker	-13.0218
▁quant	-13.0219
▁hep	-13.0222
▁tull	-13.023
ndon	-13.0232
maxilla	-13.0238
▁server	-13.0239
▁tetra	-13.0246
▁orib	-13.0262
▁baromet	-13.0272
omin	-13.0278
llah	-13.0281
▁fenc	-13.0288
isse	-13.0288
ollar	-13.03
▁escalate	-13.0303
acci	-13.0303
▁excelle	-13.0308
▁unha	-13.0313
acit	-13.0326
▁diab	-13.0328
ayan	-13.034
comfortabl	-13.0344
▁clap	-13.0345
▁vali	-13.0356
traction	-13.0361
▁flap	-13.0367
ulos	-13.037
rli	-13.0376
beat	-13.0377
▁concurre	-13.0381
▁infinit	-13.0383
embl	-13.0385
activat	-13.0392
▁rhym	-13.04
▁establishe	-13.04
▁concentr	-13.0401
iversit	-13.0402
rras	-13.0403
▁commodit	-13.0403
▁shat	-13.0403
▁bestsell	-13.0404
▁cyclon	-13.0405
intestin	-13.0406
onega	-13.0408
▁verb	-13.0408
▁fulfil	-13.0408
▁bobca	-13.041
▁patien	-13.0411
▁gamesp	-13.0414
▁pacifi	-13.0419
▁profess	-13.042
▁occu	-13.0424
scopic	-13.0424
ncap	-13.0427
▁fortuna	-13.0429
bitua	-13.043
mposition	-13.043
trave	-13.0431
emption	-13.0432
▁polygam	-13.0432
nsylvania	-13.0432
▁disintegrati	-13.0432
▁metallurg	-13.0432
▁omniscien	-13.0432
grima	-13.0432
▁absolutis	-13.0432
▁asymmetric	-13.0432
▁ayurved	-13.0432
▁ayyubid	-13.0432
▁cliché	-13.0432
▁deficit	-13.0432
▁dormitor	-13.0432
▁expatriate	-13.0432
▁foreshadow	-13.0432
▁idiosyncra	-13.0432
▁lodging	-13.0432
▁necrophilia	-13.0432
▁philanthropi	-13.0432
▁prefrontal	-13.0432
▁punjab	-13.0432
▁rangefinder	-13.0432
▁reestablish	-13.0432
▁remunerat	-13.0432
▁rescind	-13.0432
▁uncontroll	-13.0432
▁unintentional	-13.0432
▁incarcerat	-13.0432
▁redeploy	-13.0432
▁apopto	-13.0432
▁oppressi	-13.0432
▁orchid	-13.0432
jector	-13.0432
▁hallucin	-13.0432
▁inexpe	-13.0432
▁occupan	-13.0432
▁refute	-13.0432
▁aeroplane	-13.0432
▁hexafluor	-13.0432
▁nourish	-13.0432
glish	-13.0432
▁tattoo	-13.0432
▁sensibilit	-13.0432
▁exquisite	-13.0432
▁habsburg	-13.0432
ardhana	-13.0432
▁kartik	-13.0432
▁hospi	-13.0432
▁methyl	-13.0432
▁airstrip	-13.0432
▁tumul	-13.0432
▁zuni	-13.0433
▁trolley	-13.0433
▁blister	-13.0433
rophon	-13.0433
▁maniac	-13.0433
uspic	-13.0433
▁cadre	-13.0433
▁blogger	-13.0433
▁diplocyst	-13.0433
▁assail	-13.0434
▁agitat	-13.0434
▁np	-13.0434
▁coterie	-13.0434
▁allerg	-13.0434
▁monmouth	-13.0434
▁incre	-13.0434
▁notify	-13.0434
▁divisi	-13.0434
lothi	-13.0435
▁hedge	-13.0435
▁fortunate	-13.0435
▁soundstage	-13.0435
▁cyber	-13.0435
idio	-13.0436
▁sarcas	-13.0436
umbr	-13.0436
▁oblivio	-13.0437
zambi	-13.0438
▁eco	-13.0438
▁crumbl	-13.0438
▁oxidiz	-13.0439
▁separatist	-13.0439
tocrat	-13.044
▁idolat	-13.044
▁flea	-13.044
▁trach	-13.044
vacu	-13.0443
▁stack	-13.0443
olina	-13.0446
▁nuance	-13.0446
▁nadia	-13.0447
▁britanni	-13.0447
dolin	-13.0448
▁reiterat	-13.045
▁toads	-13.045
uto	-13.0451
▁visualize	-13.0451
ophone	-13.0451
▁orchestration	-13.0454
▁avre	-13.0455
placent	-13.0456
▁governess	-13.0456
▁preoccup	-13.0461
▁mintage	-13.0461
▁eug	-13.0465
▁capitalize	-13.047
▁materialize	-13.047
▁stoic	-13.0471
peg	-13.0472
▁strut	-13.0472
▁hesitate	-13.0475
ulga	-13.0475
humi	-13.0476
▁sync	-13.0477
▁refreshing	-13.0479
ophyl	-13.0479
orma	-13.0485
▁midfield	-13.0487
▁remar	-13.0487
▁swarm	-13.0487
▁squir	-13.0488
▁sardi	-13.0492
lugg	-13.0496
derton	-13.0499
raff	-13.05
▁blur	-13.0505
▁fuji	-13.0508
eban	-13.051
▁soup	-13.051
gym	-13.0513
▁kenya	-13.0514
▁hyg	-13.0515
tifa	-13.0521
▁hadrosaur	-13.0522
▁agonist	-13.0523
▁rental	-13.0527
▁wac	-13.0529
▁fireball	-13.0533
dels	-13.0535
illin	-13.0542
▁barba	-13.0543
▁pinn	-13.0548
▁carb	-13.0549
▁555	-13.0549
guise	-13.0554
▁spinner	-13.0557
▁vene	-13.056
▁tatt	-13.057
▁mumm	-13.0576
▁karan	-13.0579
▁elie	-13.058
taine	-13.0582
▁hideou	-13.0584
comb	-13.0584
ndant	-13.0585
eresa	-13.0587
▁meander	-13.0587
▁aerob	-13.0595
▁biod	-13.0596
▁impurit	-13.0597
hera	-13.0599
▁coven	-13.0602
▁amie	-13.0604
▁hydrate	-13.0606
▁bp	-13.0612
▁patholog	-13.0614
errant	-13.0614
▁raisin	-13.0618
▁covent	-13.0621
▁lou	-13.0625
▁sulf	-13.0627
▁422	-13.0629
ears	-13.0631
▁paddy	-13.0631
pio	-13.0635
▁remodel	-13.0645
ranad	-13.0647
▁vla	-13.0648
vara	-13.0651
hanne	-13.0654
ondag	-13.0663
stylis	-13.0663
▁sati	-13.0663
▁banta	-13.0664
ork	-13.0668
▁showcas	-13.0675
▁reintroduc	-13.0676
acinto	-13.0679
▁pug	-13.0684
▁allot	-13.0687
aban	-13.0691
▁unor	-13.0693
880	-13.0697
▁winni	-13.0699
▁ventu	-13.0702
rtment	-13.0702
▁361	-13.0709
▁grue	-13.0713
tude	-13.0715
▁ranch	-13.0716
▁grit	-13.0717
▁deduct	-13.0724
bj	-13.0726
tzk	-13.0731
eya	-13.0748
▁esqu	-13.075
▁nx	-13.0751
escu	-13.0753
▁pue	-13.0757
prompt	-13.0761
▁predate	-13.0763
nsive	-13.0766
▁tuo	-13.0773
▁stegosauria	-13.0773
▁hurd	-13.0779
▁haus	-13.0781
▁gatherer	-13.0784
▁bohemia	-13.0784
▁redu	-13.0788
oratori	-13.0794
oso	-13.0801
standing	-13.0802
zum	-13.0807
▁applica	-13.0822
arasa	-13.0831
kanna	-13.0833
▁boob	-13.0857
▁encompasse	-13.0867
dote	-13.0871
▁syndicat	-13.0876
gg	-13.0877
▁mccor	-13.0887
traged	-13.0892
▁arnie	-13.0892
urrant	-13.0895
plane	-13.0896
determin	-13.0911
▁igua	-13.0912
▁lewe	-13.0913
cabi	-13.0916
970	-13.0925
tune	-13.0929
▁berni	-13.0929
▁consolidate	-13.0934
ugo	-13.0942
920	-13.0961
▁tomas	-13.0964
bro	-13.097
▁mou	-13.0988
▁politi	-13.0993
downe	-13.0999
hugg	-13.1004
arms	-13.1016
▁cou	-13.1017
witch	-13.1033
fraction	-13.1034
corporation	-13.1043
suf	-13.1043
▁mcgui	-13.1047
legitimate	-13.1048
unit	-13.1049
efficient	-13.1053
functional	-13.1055
mech	-13.1056
fortune	-13.1062
awyer	-13.1063
watch	-13.1064
essential	-13.1067
glass	-13.1068
dynast	-13.1069
frequent	-13.1069
brook	-13.107
▁fiftie	-13.1071
match	-13.1072
ziz	-13.1073
militar	-13.1073
zap	-13.1074
boat	-13.1074
speaker	-13.1075
loud	-13.1077
eats	-13.1078
hart	-13.1081
birth	-13.1081
▁antiqu	-13.1081
foot	-13.1086
▁burma	-13.1087
usqu	-13.1087
grave	-13.1091
▁rebellio	-13.1095
hail	-13.1101
circula	-13.1104
belle	-13.1104
lac	-13.1112
▁salvag	-13.112
bron	-13.1122
etus	-13.1126
stella	-13.1129
amblin	-13.1139
brett	-13.114
root	-13.1154
▁shrubb	-13.1155
mc	-13.1156
tag	-13.1159
▁adol	-13.1167
▁menac	-13.1168
320	-13.1168
sense	-13.1169
▁farc	-13.1213
thorn	-13.122
dwick	-13.1234
store	-13.1246
lexic	-13.1246
▁allu	-13.1249
▁lour	-13.1249
▁notch	-13.1251
▁clashe	-13.1252
igi	-13.1257
tez	-13.1261
▁lup	-13.1263
nese	-13.1269
▁wette	-13.127
pact	-13.1295
chari	-13.1295
proliferati	-13.1314
▁gabon	-13.1317
juri	-13.1321
mega	-13.1337
▁veh	-13.134
▁vince	-13.1341
annit	-13.1373
▁nag	-13.1374
▁inject	-13.1377
nkar	-13.1383
▁sud	-13.1392
▁dung	-13.1393
▁cyril	-13.1407
now	-13.1428
▁nostr	-13.1433
▁vill	-13.1443
rryl	-13.145
taller	-13.1476
pali	-13.1484
ozo	-13.1484
▁typographic	-13.1484
▁irra	-13.1493
▁polariz	-13.1495
▁launche	-13.1508
▁reple	-13.1511
▁inactiv	-13.1524
▁feli	-13.1583
ailing	-13.1598
▁sieg	-13.1609
trea	-13.1615
persed	-13.1617
romp	-13.163
▁topograph	-13.164
ficient	-13.1642
borg	-13.1642
▁mone	-13.1648
bbel	-13.1648
anian	-13.1652
▁ratifi	-13.1667
▁anesthe	-13.167
oyang	-13.1683
spor	-13.1686
▁spr	-13.1687
iyam	-13.1696
▁carly	-13.1708
▁assure	-13.1713
▁quar	-13.1723
▁crystall	-13.1728
mistic	-13.1728
log	-13.1741
▁maza	-13.1744
oos	-13.1744
▁salarie	-13.1756
comfort	-13.1797
determinat	-13.1799
▁kub	-13.1801
▁barri	-13.1808
biase	-13.1831
▁midwest	-13.1833
fluenc	-13.1836
wind	-13.1846
▁recreat	-13.1846
won	-13.1851
▁sadl	-13.1857
lawless	-13.1858
ntour	-13.1859
hash	-13.1864
erica	-13.1874
keshi	-13.1876
ific	-13.1886
iler	-13.1888
diction	-13.1891
lodic	-13.1898
▁battl	-13.1899
▁claus	-13.1926
west	-13.1945
▁thir	-13.1946
gb	-13.1953
uva	-13.1955
▁hoc	-13.1964
inder	-13.1965
matica	-13.1966
▁testimoni	-13.1991
▁strap	-13.1997
vation	-13.1999
▁sacrific	-13.1999
itan	-13.2007
▁cran	-13.2013
llman	-13.2019
▁budd	-13.2021
▁bellev	-13.2021
▁imitate	-13.2031
▁kp	-13.2051
▁selectiv	-13.2052
omme	-13.2054
▁harmo	-13.2057
▁verdi	-13.2059
nebu	-13.2059
▁filmmak	-13.2064
▁unhea	-13.2067
llev	-13.2067
affo	-13.2067
▁transmit	-13.2067
▁appea	-13.2072
destine	-13.2078
▁shri	-13.2078
einste	-13.2078
▁senti	-13.2079
algo	-13.2079
▁reiter	-13.208
culate	-13.208
▁officia	-13.2081
▁festiv	-13.2081
tech	-13.2086
▁carniv	-13.2086
doctrin	-13.2086
variabl	-13.2087
berra	-13.2088
▁distort	-13.2089
▁transcript	-13.2089
▁posse	-13.209
▁abdi	-13.209
cgw	-13.2094
▁infan	-13.2095
rederi	-13.2096
▁novi	-13.2097
hallowe	-13.2098
▁fluori	-13.2098
publica	-13.2099
otypic	-13.2099
▁repatriat	-13.2099
▁leptoceratopsid	-13.2099
▁lignotuber	-13.2099
▁rosenbl	-13.2099
▁stabb	-13.2099
▁antibiotic	-13.2099
▁benefactor	-13.2099
▁chimney	-13.2099
▁cofferdam	-13.2099
▁corrobor	-13.2099
▁encroach	-13.2099
▁minesweeper	-13.2099
▁nanobot	-13.2099
▁prejudice	-13.2099
▁subscription	-13.2099
▁tranquil	-13.2099
▁accredit	-13.2099
▁deceptive	-13.2099
▁insurrection	-13.2099
▁outburst	-13.2099
▁stubborn	-13.2099
▁tempt	-13.2099
▁thwart	-13.2099
▁wiccen	-13.2099
▁persuasi	-13.2099
▁prestwich	-13.2099
cloni	-13.2099
▁evict	-13.2099
▁ravidas	-13.2099
▁tuberc	-13.2099
▁chieftain	-13.2099
▁propagat	-13.2099
▁balcon	-13.2099
▁electrop	-13.2099
▁elicit	-13.2099
▁trident	-13.2099
▁achae	-13.2099
▁sobri	-13.2099
toric	-13.2099
▁holbrook	-13.2099
nigam	-13.2099
▁hummel	-13.2099
▁vandalis	-13.2099
▁retell	-13.2099
▁dexter	-13.2099
▁syncreti	-13.2099
▁cigar	-13.2099
▁marjor	-13.2099
▁coloss	-13.2099
▁banquet	-13.2099
▁lakota	-13.2099
▁impartial	-13.21
gelman	-13.21
▁fiesta	-13.21
▁righteous	-13.21
▁aesop	-13.21
▁dizzy	-13.21
▁reliquar	-13.21
▁transfusion	-13.21
▁translit	-13.21
▁stee	-13.2101
▁symbiont	-13.2101
▁overlord	-13.2101
▁wiesel	-13.2101
▁pruden	-13.2101
▁conformist	-13.2101
▁impulsive	-13.2102
crap	-13.2102
▁anthra	-13.2102
▁niob	-13.2102
uvre	-13.2103
ratch	-13.2103
lmina	-13.2103
▁spice	-13.2103
ilade	-13.2104
▁jeopard	-13.2104
darin	-13.2104
▁tutorial	-13.2104
▁fiber	-13.2104
▁conspir	-13.2104
▁blackmail	-13.2105
▁regal	-13.2105
▁antimonide	-13.2105
▁placard	-13.2105
rompt	-13.2105
fg	-13.2106
▁hoard	-13.2107
▁ecl	-13.2107
rape	-13.2108
▁vocalization	-13.2109
wnw	-13.2109
▁blacksmith	-13.211
antou	-13.211
guine	-13.2111
▁clem	-13.2113
slau	-13.2115
▁desc	-13.2117
▁crimin	-13.2118
ieve	-13.2119
<	-15.6722
